79
eb
39
db
52
02
11
fd
00
00
00
00
00
00
00
00
fb
19
c6
94
3c
c3
6a
db
00
00
00
00
00
00
00
00
33
47
fc
f4
e4
ff
1f
ff
00
00
00
00
00
00
00
00
05
f1
1c
0f
24
05
f8
e4
00
00
00
00
00
00
00
00
f9
07
15
fe
0f
ff
19
e5
00
00
00
00
00
00
00
00
fc
04
05
0e
0b
2f
fd
05
00
00
00
00
00
00
00
00
fc
05
f3
63
21
fb
18
05
00
00
00
00
00
00
00
00
f9
f9
20
81
ef
10
ee
18
00
00
00
00
00
00
00
00
00
f3
ea
06
0c
fe
f9
dc
00
00
00
00
00
00
00
00
f6
2a
04
08
15
0a
22
fb
00
00
00
00
00
00
00
00
09
f8
f6
ef
fa
cc
fc
f5
00
00
00
00
00
00
00
00
ce
f4
fc
fd
fc
f9
26
f1
00
00
00
00
00
00
00
00
1c
e7
1f
7a
e6
cc
31
48
00
00
00
00
00
00
00
00
f5
0c
2c
06
06
19
0c
0f
00
00
00
00
00
00
00
00
ab
d2
42
1c
b3
e1
9f
ca
00
00
00
00
00
00
00
00
f7
13
f4
e2
d6
f2
73
f6
00
00
00
00
00
00
00
00
f0
e9
16
23
0a
10
11
27
04
d5
0b
f7
0c
08
02
f3
f9
01
03
ec
fd
fc
02
09
16
02
fe
06
fb
f4
08
ff
bf
05
3e
ef
11
0f
2d
f2
28
b5
19
04
0d
eb
02
27
fd
f7
fb
ed
24
49
f5
0e
05
ec
3f
2c
04
ff
1a
09
16
f2
d4
fa
fc
0d
f7
ee
11
1e
05
29
0e
f5
07
e3
fe
01
e9
13
fa
f9
0c
f3
01
06
01
1d
f2
01
ff
0d
04
0b
09
eb
ee
00
0a
d2
09
f4
02
12
f9
34
fc
13
26
d3
f9
fb
4a
14
0e
16
2a
1e
07
fb
fb
2e
e7
ef
f5
06
e8
2b
fa
e3
c4
30
ea
f7
ef
f4
06
02
e7
04
fc
d8
0a
25
f8
07
45
ce
01
ff
12
0d
04
da
f6
06
10
f1
05
e1
fa
12
14
08
f8
00
05
1b
e5
3e
10
eb
f4
e8
05
19
f5
0d
f9
ea
44
d4
0b
07
12
16
f8
f2
b9
32
56
0f
f5
13
10
d5
1c
eb
06
7f
e0
e1
de
34
10
ed
f2
3d
17
1b
fa
e7
0d
15
18
fd
15
fe
de
f5
fe
0c
27
a1
f9
06
0a
1b
1b
27
08
18
eb
fa
02
20
fb
f0
ee
eb
23
e7
f3
d5
07
28
f4
29
04
fb
e5
0d
01
fa
2b
03
0d
05
0b
02
03
ca
05
2d
fd
0b
d9
09
18
fe
fd
1e
ed
f6
04
1a
fb
02
fb
09
e7
10
05
0a
35
20
0f
f4
4d
fb
0d
20
f2
15
fd
0d
f5
30
df
cb
1a
fc
0a
fc
33
06
fe
f6
2b
14
03
12
0e
d7
ff
d9
02
fe
01
ff
00
03
ec
fc
2b
05
fe
01
0b
08
fc
04
0f
f0
f7
fe
15
17
e3
0c
f1
f8
1b
eb
3e
02
1a
f4
03
03
fe
06
19
fe
f5
f4
fc
fb
fd
1e
03
f2
f7
1e
ff
f4
ca
e2
f6
03
fc
fc
ff
36
02
13
ee
eb
f8
f2
d4
ea
24
fb
01
1a
26
f3
0a
f6
03
1b
bb
70
00
de
05
00
ef
fe
09
01
01
fe
02
f6
ff
1a
fa
03
00
0a
27
06
fb
1e
f8
0c
1d
28
1c
f1
02
0a
00
32
15
30
12
e9
f7
fd
e8
10
01
1e
f9
1b
10
0a
fd
f2
0f
fd
ec
fe
e4
f3
07
02
2d
0a
23
f4
01
fb
48
07
19
09
25
1d
19
37
19
fa
20
ff
f1
9c
fb
0d
fb
2e
b9
ec
00
08
02
04
ff
62
f3
0b
f3
00
54
fe
f7
fc
09
fc
e5
fd
1f
0d
f1
06
07
1a
ec
23
0c
e1
36
34
20
c4
f1
00
04
fd
01
fc
0b
ee
06
f9
f7
01
2a
09
03
04
10
f5
fd
13
dd
df
ff
de
67
e8
15
fb
f9
ca
11
df
0a
0b
ff
01
f8
04
0b
fa
03
0b
05
05
05
fa
08
f7
ff
f8
e2
fd
1e
ed
fc
1a
2b
cc
01
eb
0d
13
0a
fd
f7
fa
0a
14
e8
02
f7
fa
01
f5
f9
fd
06
02
fe
23
1f
0b
f8
08
0c
ff
f6
01
ff
dd
02
01
fa
27
fc
09
f5
0c
f2
14
dd
0f
0d
e1
f0
25
00
f7
1c
fb
05
f7
29
12
fe
ee
13
fb
29
e7
2a
f5
f2
34
05
20
eb
ff
1d
f2
19
1f
f8
07
0a
1c
fa
f4
23
09
d7
06
f4
f0
ff
01
f5
12
01
03
ff
fe
fe
05
f9
fb
1d
03
fb
04
12
cc
1e
37
0f
1d
e7
de
f4
1f
03
be
ff
fc
0d
db
2d
ec
f6
ef
17
ff
ea
08
10
02
1a
f5
1f
ce
09
e0
10
1e
00
ec
f0
d0
f9
f5
da
fb
f5
05
ff
fe
f6
f3
14
fc
01
f9
0c
19
fa
0a
f2
23
0a
f1
f2
06
f4
07
01
01
fc
51
13
d7
64
18
14
d1
48
0a
bf
29
13
f5
39
dd
03
f1
fa
fc
ff
cc
ee
f0
f6
fe
2f
d5
10
03
01
06
12
04
fd
f9
14
00
f8
fe
e9
fa
00
00
f7
f5
0f
08
54
03
0a
0b
1a
11
da
fb
14
c9
fb
c7
e4
08
13
02
08
00
0a
fe
00
03
fc
06
01
fc
fe
11
e3
05
03
35
ec
08
01
ce
f3
f5
f5
12
fc
f5
f1
21
fd
f5
fb
fa
ff
02
ff
1c
02
07
0d
03
04
01
05
fc
fe
f7
12
ec
09
01
02
15
10
08
11
00
eb
f3
ec
0d
12
09
1c
06
09
11
14
f7
01
04
dc
17
14
fb
e9
02
d5
09
ff
f8
07
72
fe
34
08
1a
df
0f
24
e6
0d
1f
f6
f7
f1
11
fd
e4
02
0f
0a
00
f6
00
05
29
0c
f5
cd
0c
07
fb
03
00
fe
fb
ee
09
0b
04
f9
eb
00
04
00
f9
0c
11
dd
ea
e4
1d
e3
d9
1c
f5
ee
07
f5
ef
f5
13
f2
11
06
16
dd
e8
12
fb
f7
0c
fe
e7
f3
fa
eb
04
ff
43
e3
21
fa
f1
f0
f0
1a
1c
30
f5
fc
f3
0f
fd
11
fd
f8
12
f8
ff
0d
21
06
25
f4
f3
37
0d
0d
07
f0
06
eb
f8
ed
04
ca
ec
02
0c
5b
c1
dc
04
49
b8
7f
e9
dd
11
ed
e9
bb
1e
0e
22
16
00
f5
27
04
d9
fd
11
01
f3
02
f6
fc
e4
fd
ee
09
e7
f8
0a
07
05
03
15
f9
0d
08
ff
fd
ff
e8
f7
07
fd
fb
03
19
00
00
e0
f3
f5
08
1d
f7
01
15
17
f9
0c
f9
f1
f2
0b
01
0c
ff
fe
ed
ee
e5
ff
f1
01
ee
e5
f5
10
01
30
19
10
fe
fb
0a
1a
d8
06
09
f2
ed
f5
e0
e3
0b
11
06
fc
1b
e4
ed
27
f2
01
f0
fb
08
07
d9
fe
06
0b
19
11
fa
d5
df
08
ff
f3
fc
2a
06
03
ed
e1
05
e3
f2
ed
10
1b
01
27
2c
ea
e2
f6
04
2f
f1
04
f5
10
20
d2
06
f9
11
f3
d4
0c
f4
d8
f1
e5
09
25
00
0c
e3
10
e4
fa
c3
fa
04
09
03
fb
ec
f5
f3
0d
06
21
eb
f5
0f
0d
f2
f5
00
ed
f2
09
01
fa
2f
0a
f4
21
eb
f0
44
05
e6
d3
19
d8
02
2a
19
fe
f8
34
fc
10
ed
27
fc
00
05
13
32
0d
fc
ea
0b
0f
ff
11
f5
e6
ea
ed
21
01
ec
62
77
23
f2
fa
f2
39
31
06
04
36
2a
e6
12
1b
06
f5
19
07
07
06
5d
ee
ef
06
24
dc
e8
ea
05
e7
f8
da
1f
09
ec
25
fe
2d
08
f4
eb
fe
d9
06
35
f4
08
21
07
10
f8
f4
f4
d2
06
27
fb
0b
f8
fb
ef
00
27
07
fa
02
00
00
08
0d
f2
fa
e9
ff
07
15
06
e7
fa
fb
d2
ee
fc
d7
fe
f7
0f
f8
d5
0f
d4
e6
24
01
05
13
e2
42
29
fc
13
0d
f5
34
36
09
f9
f5
e4
13
13
26
06
f3
fc
ec
01
02
f4
30
10
25
14
0a
f1
0d
fe
ff
dd
01
ed
05
0f
fe
fb
0e
00
f4
0a
5a
00
11
1a
e2
13
f2
e7
e8
54
20
f0
ff
09
0c
eb
ca
f3
05
e1
1e
ed
ed
03
e4
02
ea
1e
f7
17
cb
fe
2f
e3
ef
dd
15
f0
ed
10
f9
f3
09
f1
f3
13
ee
01
17
0c
fe
13
01
f5
fd
ed
03
10
f0
0a
10
03
fb
ff
f7
d8
09
f8
14
1a
ef
16
1e
d9
d3
01
e7
ef
16
14
0a
f6
fd
ef
06
07
39
f0
35
f3
4a
f6
06
e5
f0
f6
11
fe
42
0c
ed
f1
e9
05
f1
fc
f7
03
0c
07
d9
df
c8
e7
07
f6
da
25
6a
b1
0e
ca
fe
02
06
12
bb
2d
e6
fe
f1
e4
f5
d0
f5
b9
d9
f2
03
eb
ea
93
f7
fc
ed
ee
fb
fb
fe
fd
f2
10
0d
fe
f3
3d
01
f8
e1
02
03
fc
fb
19
04
1c
01
f1
08
f8
01
05
03
f5
ee
13
09
f5
f9
ff
ef
ec
2e
0a
18
07
f0
06
27
ee
ef
1a
14
f5
0e
ef
f8
20
07
02
1d
e5
04
fa
27
f0
f3
e5
f5
dc
17
35
26
07
21
10
24
02
db
db
02
0d
0a
07
07
fb
db
0b
df
f7
03
ec
fc
03
df
e1
01
16
24
fc
ff
10
fb
f8
ed
f3
07
0d
08
fe
f4
fe
fc
07
06
06
03
fe
04
f4
e3
06
00
14
0a
08
f1
06
df
08
e8
d9
c5
04
fe
0d
0d
52
fb
1f
f5
f3
fe
e3
0f
14
d9
0e
ef
0d
14
fa
f6
f7
e4
2b
01
e1
05
08
f0
03
ff
fb
f9
fa
02
07
02
07
fa
e7
fe
17
09
fe
f2
fd
03
62
e9
09
f3
07
04
ff
fc
f4
12
fa
18
13
0e
0a
e0
1a
12
f6
12
ff
f4
18
f4
ce
18
e4
0a
fa
f3
fe
ef
18
1d
20
fc
e9
04
fa
02
09
f6
00
fa
15
0f
e2
e9
19
ed
00
0e
0e
fa
02
f7
20
06
02
f5
ff
04
f1
e6
eb
ff
0a
f5
ee
0c
16
eb
00
12
dd
0f
12
06
02
ed
f6
eb
2d
e2
1c
00
ff
20
05
fa
db
00
ce
09
f4
df
f7
f4
00
00
00
fe
fd
00
ee
07
fc
03
fa
f0
05
06
f8
04
ff
fb
da
2d
fb
1e
fd
02
da
db
e4
11
0a
27
f2
ec
07
ed
e1
f5
0d
f2
0a
22
d6
fc
d6
09
f8
07
07
14
f8
f7
f6
0c
e4
e8
df
3c
f1
f5
12
c5
04
e5
fe
12
08
15
eb
1d
0c
fa
0f
08
1f
fd
fd
ef
01
08
02
1a
06
fa
f6
0d
fa
f4
07
08
08
e2
f9
ff
f7
0e
03
f7
ed
0b
04
2a
03
f9
03
e0
15
d9
07
f8
0b
f8
03
fb
f8
11
1d
f4
01
f6
fd
0a
1d
07
07
ec
12
1e
f7
29
29
ee
1f
e7
20
0e
06
02
07
00
eb
2a
cd
f2
fe
08
f4
0f
f2
05
f8
fa
02
f2
01
07
ff
f5
20
fe
0e
0f
11
f9
04
fe
fc
eb
fe
e6
d8
00
f8
0f
17
fd
ec
ed
03
eb
16
f7
10
0e
ee
ee
cb
1a
0b
0b
dd
eb
00
de
24
e1
08
0e
ea
1e
ef
1b
e1
07
02
fc
ee
07
ec
0d
f3
f6
fd
1b
fa
fb
fe
f9
07
e7
fb
fe
09
f8
fb
f1
02
fa
08
e9
fd
fb
12
e2
0e
f4
f1
26
1a
f0
04
04
00
e8
16
fe
d8
16
01
e1
07
ee
1c
16
4c
fb
0a
27
08
03
17
1d
06
0c
e8
0e
ed
e9
2a
27
f2
ff
30
f5
11
04
ee
06
ea
e9
06
00
07
00
10
04
f7
e8
05
01
fc
f7
17
18
0c
f8
e9
04
ee
0b
36
f6
f3
12
06
06
ee
e8
03
fd
e0
26
0b
20
0d
d2
ee
3e
0e
f9
fa
09
02
f7
14
05
1d
13
04
08
e6
f6
06
f8
f6
f4
e7
13
ff
00
18
0a
00
05
19
12
0c
12
f4
e9
19
07
1e
01
02
0c
00
f9
02
e4
07
f9
fc
03
08
e1
00
ee
00
f3
d7
ed
05
07
f1
00
ed
00
20
e0
de
fd
25
12
1a
15
ef
e4
d6
08
1b
ea
ea
0f
f3
f2
13
f0
07
e5
0e
f9
f4
20
0d
16
ef
1a
f1
15
f5
18
ff
fe
02
03
0e
d7
e7
f7
ee
d5
4b
1b
11
3d
1b
de
ef
09
1c
cd
3b
12
06
ea
e5
ec
0b
12
13
0a
ec
09
fa
fc
11
bc
23
f9
fc
04
36
f2
c8
04
e5
3a
d2
0b
e5
d4
05
be
08
e9
f4
fc
0d
e1
06
00
1d
12
f3
f8
01
02
f0
e9
d1
2f
1a
f8
08
01
f7
f6
15
ef
d2
f9
1b
4e
df
e4
16
fe
f5
fb
de
e4
fa
24
ea
0c
e9
e3
d3
09
db
ec
14
0b
fe
e2
eb
f8
19
0d
c6
0f
17
2f
ef
fe
ec
eb
1f
68
05
f0
ec
fe
0e
19
1c
1d
04
2b
1b
0d
03
f5
ff
05
ef
03
fe
06
34
1d
fe
ed
1e
13
fb
00
06
eb
fc
1a
02
0b
e6
06
ea
06
1d
21
04
fa
2d
04
06
22
06
f3
db
07
f8
fd
0a
e5
da
08
0f
2a
f1
09
fa
fa
1d
e3
1c
07
16
04
08
f4
f6
27
22
df
d0
40
be
27
0f
f3
fe
fc
02
04
13
07
13
ec
f5
09
f5
12
eb
fd
ff
11
d1
04
e8
f6
fe
1d
ea
e0
e7
d4
22
f6
fe
05
05
16
aa
14
15
d8
49
e4
14
d2
21
e8
ff
ef
e8
1a
13
f1
e4
0c
f0
e5
dd
ef
f0
17
fa
06
da
33
07
f6
0b
fa
09
19
04
17
ce
d4
eb
0a
12
ef
16
b8
e8
11
06
0d
14
07
03
f2
0c
eb
fe
f9
f4
f9
fa
07
f0
fe
11
f2
f4
ef
de
d0
fa
de
fc
e5
03
2b
0c
24
0b
0b
dd
fd
fe
fe
0e
03
05
e3
37
0d
09
f4
0d
ee
24
24
fb
c6
e9
08
ea
00
fe
28
00
fb
02
0d
e2
5f
24
e3
db
f9
20
ff
ca
2f
ff
db
f1
ca
cb
1e
3e
0d
23
e8
08
f3
04
09
2d
26
01
0c
d4
15
07
17
3e
06
ed
f6
14
fd
ef
fe
cc
e8
22
fe
0c
dd
f9
10
d8
e3
05
11
0c
20
1e
17
11
09
fb
df
0e
f0
00
23
2b
11
2b
e7
fa
0e
09
01
00
09
09
f5
0e
f6
02
0d
03
e6
ff
08
2e
fb
fc
ed
fc
10
1f
05
05
02
f7
f9
f3
00
07
f2
f3
17
09
f5
e9
e8
df
0d
16
ed
03
f4
06
04
fb
00
02
de
00
0e
fa
06
ea
f1
f6
fb
de
fe
f0
f9
02
02
f2
03
0f
fe
06
f6
02
01
d1
02
fb
11
f4
e2
08
14
e2
2e
01
e5
08
f6
28
fc
fb
38
02
f0
0d
fb
1c
0c
f3
01
26
04
f0
01
0c
07
07
0f
fe
09
f7
00
fc
00
0d
e6
0b
20
f1
09
f0
cc
fd
f4
d8
0d
4b
06
fa
fd
0e
04
08
f3
f4
3c
18
ff
ed
0c
f6
fb
fc
0a
06
09
da
f2
0a
16
df
f3
f1
e3
e5
d5
34
43
2b
0c
ee
0f
1c
45
c1
16
ef
20
f5
f4
d0
ed
23
7f
4e
ec
e8
ef
ea
15
f0
04
f1
fb
03
0d
ff
13
00
00
04
ed
05
fd
36
f3
f6
11
e8
af
ee
dc
d8
08
db
25
0e
50
cc
18
f0
ee
1e
ea
01
00
0e
f5
22
38
0b
46
4c
11
d2
1f
ee
f9
28
fe
0d
0c
f1
f7
ff
db
e2
29
f5
ff
e9
e4
47
01
03
ea
fa
ee
1d
25
fa
ed
16
32
e1
54
f5
ed
15
06
0b
05
f4
01
ff
0e
01
f0
e1
07
f0
02
f9
e7
ec
f6
f0
ff
05
0b
f8
fb
fa
08
f0
ff
ed
0c
0a
ff
20
ff
0f
ed
f3
08
02
0d
0a
f2
ff
e8
0a
ff
ee
07
f1
24
ed
ff
e7
fa
02
06
05
0e
01
ff
f0
f9
08
d6
f8
f9
15
23
fa
18
f6
02
15
ce
f8
0d
1f
f8
fe
fe
0c
a2
12
04
fe
16
0a
06
f7
04
17
d9
ea
ea
d4
18
02
fe
f6
05
05
d9
ef
0b
0a
0f
f7
f3
08
00
21
0c
f7
02
f7
fe
09
fc
14
e7
10
e9
15
f7
10
e3
05
01
23
ed
fd
1e
f6
0d
fc
18
f4
d3
f0
e2
ec
17
f3
f2
2a
eb
17
3a
a9
bd
f5
fa
5f
d4
ea
36
ee
d5
5f
4b
2d
c3
ca
08
0f
19
27
02
e6
c2
d3
e3
08
e0
01
f7
1b
ff
f1
f9
fd
f8
fb
10
df
06
f4
2d
f3
0a
ea
d9
c8
cb
0f
08
10
f4
0b
01
c3
03
c3
e8
d1
1a
2e
25
0f
00
df
ed
21
e8
49
e7
e6
f3
0a
24
09
0d
e5
f1
60
f9
16
06
c3
34
3e
ec
07
37
f3
e7
f6
01
10
c1
3b
f5
fb
0b
03
00
0f
f3
05
32
e2
f0
05
e4
1d
d4
01
ff
03
1b
13
18
ef
0a
f6
fb
0a
0a
1e
1a
e7
f0
22
e6
f9
15
14
34
14
00
12
07
f9
f9
e9
05
0c
d0
fd
e7
2a
15
e7
ec
2c
cc
00
0b
fb
08
0e
07
d1
e8
13
d4
21
fd
fe
dd
ec
e6
04
e3
fe
f1
20
0b
ff
19
0d
11
fe
fc
ff
f8
f7
d1
11
e1
11
f8
02
d6
09
ee
0c
f7
c0
2f
16
f6
d3
dc
10
50
ee
f6
2f
f4
f3
ed
f7
09
04
fb
0d
e7
fd
f2
de
f0
f8
1e
e4
d3
0f
dc
06
d8
db
e9
ff
22
21
09
12
fd
ef
06
e8
f9
ff
00
fd
f2
fb
0a
f8
00
10
ee
ff
ff
ef
0a
e9
fb
fd
f1
f7
ff
f1
f1
de
ed
cd
1b
fb
f4
19
eb
db
19
01
fb
0c
f9
ff
fa
e2
de
14
05
ff
fc
1b
0c
10
07
c9
0d
fc
f1
18
e8
0c
00
01
e2
f6
0f
14
f9
17
24
fe
1a
f9
23
1d
f8
0a
01
db
02
fb
ee
19
03
24
ed
f8
e2
0a
f6
13
08
09
02
1a
fb
ff
fb
f1
43
1e
02
f9
03
fb
f7
f6
f0
12
d8
14
09
01
ec
e4
d7
01
f3
05
f7
f6
ed
d9
ff
08
02
23
eb
fb
d9
ea
f2
06
2f
07
01
1e
01
05
02
00
fb
0a
0a
ff
ea
23
f0
0f
ed
02
fe
fa
fe
10
e1
d8
f4
08
10
1a
f3
ce
f4
ee
0f
f3
f1
e4
e4
08
2e
2e
0b
0a
f2
ec
f6
00
02
ef
d7
ec
e7
13
2c
1c
f8
ec
06
e0
fb
ff
f1
27
d9
ff
f9
ee
18
e4
f6
e0
05
04
12
12
03
04
cf
0c
d5
00
01
f9
f6
aa
c1
22
cd
ea
10
27
f3
d2
fe
0c
cb
dd
2b
b2
56
d5
f9
08
d8
17
ea
ef
0b
05
0b
f8
40
fa
04
ed
0b
f5
fc
e0
f8
de
f0
15
e4
01
08
10
17
f8
0d
0e
0e
ec
f0
f8
ff
0e
fb
f7
e7
fd
0d
f9
0c
f9
0a
0a
f7
15
26
fa
e2
f6
0e
e0
04
29
fd
23
f3
0a
04
0f
16
db
ef
fe
f1
0b
f3
04
29
16
09
f3
02
f1
00
f5
08
f8
ef
0f
01
09
cc
08
13
1b
27
cb
11
10
09
00
f7
1a
11
f0
f6
05
ed
fe
18
fc
c3
e6
19
0a
1f
38
f9
04
1b
01
1a
02
fc
f2
da
0a
15
19
f7
0d
0a
09
e1
0e
ee
29
ff
02
06
17
2a
e7
07
f3
f2
f7
03
09
1d
28
f5
04
30
f6
f2
23
2b
ec
e2
0d
1f
eb
f1
25
26
00
00
00
00
00
00
00
00
00
00
00
00
00
00
00
00
16
09
eb
21
e9
fd
03
f8
e9
2d
10
0f
ed
ff
fb
ee
f3
00
f8
17
09
04
07
22
fb
f3
2c
10
eb
f8
f4
05
06
fc
d5
28
08
e1
0c
07
17
f3
18
0d
27
20
14
0c
eb
25
fe
3c
00
e9
f6
e1
e0
da
13
08
07
19
be
05
07
dc
fd
ed
0b
f5
07
ef
f3
f8
15
09
06
0f
08
e9
15
01
03
eb
08
f1
0b
ea
f0
f5
0b
00
08
04
06
f6
2e
f7
26
42
e4
32
2a
ed
08
26
f8
2b
fa
27
f9
24
db
a9
00
d8
eb
27
04
15
00
07
04
eb
e9
5a
fd
11
00
00
00
00
00
00
00
00
00
00
00
00
00
00
00
00
00
00
00
00
00
00
00
00
00
00
00
00
00
00
00
00
f2
26
2c
13
eb
e9
0b
20
19
14
1a
0f
0d
23
fb
ff
07
e9
0f
ea
07
13
0e
05
e7
0b
11
14
00
09
fb
31
13
fe
f3
01
d9
fc
f2
09
01
fd
08
f3
fe
f2
fa
0a
ed
0c
1c
0a
05
15
08
f9
0d
02
25
18
d9
19
ed
16
eb
d6
e4
fb
05
e7
e9
e7
ec
f9
f7
e8
d1
03
12
fb
00
00
00
00
00
00
00
00
00
00
00
00
00
00
00
00
f6
f8
09
03
04
0d
ea
f5
11
12
0e
f8
04
05
05
fb
e1
fc
25
1a
f2
0c
f0
ea
22
e1
06
17
0c
dd
2d
f2
02
eb
d9
de
f0
2e
13
0a
d9
0b
18
d8
f9
27
f7
11
01
02
e2
07
49
f0
0b
e0
06
0b
23
03
f0
20
db
df
fb
f2
0b
02
f2
11
ec
ee
ff
0d
2d
fd
eb
f1
f8
0f
f0
fd
08
f8
04
04
fe
0e
00
fe
ef
08
0f
f4
fa
09
ba
41
81
e9
04
fa
fd
ca
15
d2
1c
13
17
05
a4
2a
bf
ee
0a
0d
f7
13
28
00
14
0e
e0
f8
b5
10
00
03
00
00
00
00
00
00
00
00
00
00
00
00
00
00
00
00
00
00
00
00
00
00
00
00
00
00
00
00
00
00
00
00
f5
ec
35
fa
20
03
e4
15
17
ea
00
0a
ee
1a
e2
18
08
e5
08
ff
1d
dd
ee
fa
12
03
02
f7
04
08
05
0b
f5
fa
f0
14
1d
ef
0f
f4
02
01
0a
f3
f0
06
1a
16
16
2e
ee
e5
11
16
11
39
1c
0b
1d
0a
3b
de
fb
fe
fd
27
e2
08
12
e6
08
f6
1d
ff
f0
0e
ef
0b
ed
f8
00
00
00
00
00
00
00
00
00
00
00
00
00
00
00
00
0a
fc
0b
eb
09
ef
fd
f1
f0
04
f5
e2
fd
00
03
e4
2b
0e
03
12
04
07
f3
ef
0b
fc
e6
03
f8
03
04
1b
f5
ed
da
d5
0a
07
09
df
f4
18
20
db
e0
13
f1
00
ee
04
0d
00
de
f2
f8
ff
07
ee
03
32
22
04
fc
23
f9
f4
ff
f2
f6
01
fd
13
e3
0d
05
e4
e4
f2
0b
dd
03
f8
05
19
1f
f1
fb
15
09
f5
07
21
fd
f5
f2
16
0a
14
fa
36
e9
08
f6
29
11
ee
11
20
3f
f0
08
e1
31
f3
2d
00
12
0f
1e
ec
e0
15
12
fa
e7
e2
04
00
00
00
00
00
00
00
00
00
00
00
00
00
00
00
00
00
00
00
00
00
00
00
00
00
00
00
00
00
00
00
00
00
0b
09
f9
ee
01
f8
ec
26
22
f9
08
d1
4b
f8
ef
34
04
11
08
f5
fc
f8
f0
ff
fa
08
09
19
25
f2
e7
1d
eb
ef
f4
03
f9
11
f6
06
30
02
0c
f7
01
f7
08
f7
11
28
fe
ff
f0
20
f6
2e
f2
c9
0a
02
34
1f
f9
14
02
05
e5
05
0b
2a
09
1e
f4
30
2a
01
e5
1a
ec
e5
00
00
00
00
00
00
00
00
00
00
00
00
00
00
00
00
0d
e9
09
d6
f0
12
12
3a
08
fc
e8
f7
14
05
08
08
11
0d
14
f9
0c
fb
1b
f5
0c
fe
e6
e8
f9
10
f6
fc
3d
05
18
e7
38
fd
20
e1
c4
27
13
0d
fd
f9
10
0b
ee
1c
26
ec
12
12
16
c0
02
16
18
e3
1f
e3
06
ed
0c
03
1b
d2
46
f2
27
fd
f3
fd
db
e8
e4
f1
ee
f4
fd
07
08
f7
12
fa
14
0e
05
eb
f6
f9
0c
03
04
19
1a
2f
c0
08
1a
1f
20
f0
e2
c4
aa
ef
0a
ce
e4
32
f3
f5
12
4c
19
e2
f7
ff
01
fd
f9
02
ef
e0
25
1a
00
00
00
00
00
00
00
00
00
00
00
00
00
00
00
00
00
00
00
00
00
00
00
00
00
00
00
00
00
00
00
00
29
0e
0b
1a
0b
fb
fd
0f
1d
fb
08
f2
f4
ff
01
ff
04
fc
08
03
fd
fe
0a
f3
0f
f1
10
01
fa
17
e6
ec
f7
34
fc
0b
1f
00
f9
f1
de
fb
fb
f1
cb
06
0c
10
13
ff
08
04
12
fa
fc
18
fc
df
e1
03
e1
c3
f6
10
fe
b3
08
d9
de
12
0f
28
fe
dd
c2
d8
e9
df
f1
03
1a
e3
18
e6
dd
0b
1d
fe
01
ea
44
31
22
e7
e6
e2
14
fe
06
f8
fd
ff
ff
f7
f9
f8
09
0f
00
e9
0f
07
1f
e8
01
ef
24
f4
f1
06
ed
f4
1d
0f
fe
01
14
f6
00
fd
0c
02
07
e9
e2
fd
18
2f
e9
e0
0a
2b
0d
0d
08
f5
15
f0
01
18
12
fc
f9
e2
f1
ff
fe
ff
06
ec
0b
f1
ea
0a
00
05
1c
dd
12
f8
fa
07
df
16
08
fa
05
fc
26
0d
fa
08
fe
f6
06
13
f6
1e
f8
0c
fb
f1
08
0f
e1
11
0d
e7
0c
ff
1b
00
10
11
18
06
29
21
dc
d8
13
15
05
42
24
08
0a
01
fc
06
f2
ea
f4
04
07
ff
04
f3
ec
24
f3
f2
15
0d
05
05
fa
0c
f7
0e
03
d4
1c
f8
0c
45
e6
fd
dd
f5
11
07
f4
23
f3
1b
f6
27
01
f8
f7
05
24
d6
e7
e4
f8
e8
ed
0b
16
15
03
fd
13
11
00
03
ff
07
0a
fd
02
0b
e9
f7
0d
00
e7
d5
5e
04
fd
fe
18
f1
17
05
0e
f5
fc
23
e9
e5
f2
a3
1a
19
12
3f
2d
eb
08
f4
b8
f2
11
e0
ef
33
ba
03
eb
13
e0
3e
24
fc
f0
08
1e
dc
ec
12
00
c4
27
e8
1f
1b
d9
e6
ef
f8
18
03
0f
ea
f5
08
b9
24
fd
fa
17
02
fb
fe
f5
08
05
01
eb
0f
01
e4
00
0c
26
e4
0f
f6
05
fa
d9
12
08
05
d9
11
db
f4
03
0d
fd
02
0e
f7
e1
27
03
21
e0
fe
f5
03
13
fd
e8
07
1c
fc
0f
34
0f
1a
f4
15
09
32
f8
0c
04
00
08
16
e2
e4
0b
2b
f1
03
01
f1
02
f6
f9
ec
0c
0e
f5
fa
0f
05
dd
10
1a
e0
fd
f7
f4
e3
01
fe
2a
11
d9
0b
0a
17
24
0c
e5
db
02
f1
f6
11
0d
fb
ed
30
e9
03
d6
ee
25
00
de
02
10
eb
10
f8
04
18
fc
09
25
f0
05
00
f7
0e
16
01
07
0c
07
0e
f3
fa
06
03
09
08
d8
dd
f0
08
f0
12
ef
eb
0c
ea
26
00
ec
01
f3
09
0d
e5
2f
f3
fd
08
08
e4
00
fc
fc
23
ec
04
1e
fd
ff
fc
e7
fc
ec
ff
ff
f6
03
f9
fe
02
f1
f6
f9
01
e4
08
1f
ed
17
fc
06
10
e2
17
bd
f6
fd
e7
03
f0
ec
e6
21
de
eb
e1
fe
26
08
f9
c0
fc
05
1a
e9
28
ff
04
fe
cf
ce
f5
03
1a
0e
be
36
16
17
fe
f8
18
27
ee
0b
f8
18
ea
ee
0a
ec
08
2d
e4
ee
ef
1c
f0
f5
10
09
00
07
fb
fa
f4
fc
13
f1
ff
ec
f8
f2
07
0b
36
ed
01
f1
f8
fe
e3
f6
23
04
16
d8
02
f2
fc
1f
f8
09
c6
21
10
ee
f1
0a
fe
f3
ff
f0
10
fa
e2
14
fc
18
e0
08
f2
0f
fb
12
16
ee
cb
fa
fe
03
03
f9
fc
20
42
ff
05
fe
1f
06
05
14
ec
f3
e5
15
e7
fb
f5
14
35
07
fa
06
2b
0c
ef
3d
bf
37
04
0e
e7
f8
ed
1d
02
fa
ec
2b
02
0c
f8
22
f9
fd
ee
ed
21
1f
0e
f6
d1
e2
00
0e
d1
26
0b
e3
19
ed
f9
45
fd
00
f3
f0
11
03
0a
f4
07
04
08
04
04
fb
00
13
0e
fc
07
fd
f3
0c
09
f9
05
06
16
f1
03
02
0c
19
32
fc
fb
fe
23
e5
01
dc
0a
e8
f6
21
20
fd
f1
f1
08
04
08
0c
06
0a
ff
04
01
f6
01
f3
00
f0
00
ef
f8
f5
fe
eb
dc
fb
f8
f8
e6
ea
e4
19
fb
0e
22
13
13
0a
fd
2b
07
17
0f
14
15
e1
0d
14
1e
1a
05
e5
05
19
3c
d5
16
23
0e
df
fe
2a
0b
00
03
fb
06
f6
5a
32
fc
18
df
1f
e4
01
0a
ff
01
2e
d6
f6
dd
fe
0a
fb
0a
08
f5
08
06
05
f9
fc
06
13
ff
0f
0c
fd
0d
f1
19
0a
02
47
f4
f8
f0
f9
1e
00
19
05
11
fd
ed
12
eb
f5
12
03
ec
f9
16
11
fc
f2
37
0a
ea
14
f5
02
f0
05
f6
ea
12
08
e3
0b
0f
10
e0
1f
fd
e7
22
0a
f6
f4
fa
0a
07
0e
12
02
f8
f4
e9
03
eb
0c
f3
00
ec
f2
fd
f6
0c
e5
1e
dc
02
14
cc
18
07
f1
f5
dc
f6
03
07
1a
08
0c
fd
ed
f5
06
0d
da
e5
16
14
22
f9
e9
f3
f4
10
ff
ed
ea
04
f9
24
d7
f0
03
ef
02
07
f7
0a
f7
01
eb
ff
00
08
00
14
1f
f2
13
01
2e
f5
19
f4
06
05
08
e7
05
04
ee
14
01
fb
fd
df
e9
01
07
23
0c
13
17
1b
28
db
0f
0c
0a
17
10
27
e9
fa
00
f1
f5
04
fd
01
07
f7
0d
00
ee
00
f6
ff
09
e0
11
f5
12
fd
f1
f9
e4
e1
d9
fa
f3
06
0d
fa
25
e8
f9
e6
00
1c
0d
02
e8
05
02
ed
12
cd
f7
fe
e7
04
e9
ec
f8
0d
57
c8
da
3e
fb
fb
32
0f
18
12
23
28
f0
e9
3b
08
c5
03
d5
dc
dc
03
df
d9
01
21
00
f7
04
03
fa
fe
01
02
ff
ff
09
0a
ea
f0
fd
02
0e
31
04
11
fd
11
f9
fd
02
05
19
f3
fa
1c
fd
ff
f4
0a
f5
0e
1d
f6
01
03
07
ed
06
06
ee
ec
f4
f9
24
06
f9
fe
1d
08
fb
e4
ea
03
36
da
1d
1a
03
f0
00
f0
2c
01
c4
2d
f3
f8
11
21
1e
e6
1b
3c
16
25
fd
00
01
fc
f5
0f
06
07
18
fc
1c
20
f3
fa
29
2f
e9
0c
10
0d
d9
07
f3
fd
1e
02
f1
e8
1a
07
07
fd
f7
20
09
f4
1d
03
d6
fc
f9
10
e8
ed
00
f3
f8
13
f3
f3
ec
06
e5
e4
f7
1f
dd
fc
e7
ed
c7
0f
1a
20
01
ef
18
e1
04
1b
19
ec
e8
fe
f4
1f
ee
cc
d8
d0
05
05
f2
2a
fb
ef
22
f0
1a
d7
f7
01
f1
eb
0c
db
00
00
00
00
00
00
00
00
00
00
00
00
00
00
00
00
f3
f3
08
f9
fe
ef
11
fa
f2
ef
e2
00
fe
fb
13
05
21
d5
23
13
db
e7
f4
12
0b
f9
fc
da
e8
de
f8
12
3e
fe
05
fd
d9
f5
fb
0b
01
1e
08
dc
ed
09
28
e7
b4
f6
16
d5
1e
cf
fe
fd
cb
fb
3c
ce
11
55
01
ce
19
09
03
ff
f8
ec
0a
fe
f4
f6
05
f9
10
ec
02
01
23
0f
e8
fc
f8
00
fa
0e
06
0a
04
f2
e6
06
fc
0f
0c
0c
07
f2
ef
ea
1a
f4
f4
07
11
16
e9
fa
fe
11
36
0f
13
f3
ce
ef
09
2a
23
01
d2
de
df
0f
e0
29
da
ff
0d
26
f2
18
dc
f6
1a
fe
17
fe
f1
de
ef
2c
fe
13
01
02
05
fa
1a
06
fc
0a
37
0d
f8
dc
00
13
30
09
ff
24
01
13
ec
08
fd
15
e3
21
13
b8
0e
0b
fa
06
01
f3
f7
f3
00
f4
fb
ff
f2
20
65
f9
15
f1
d3
eb
db
2d
fa
be
ee
ee
13
ea
f0
f0
15
f6
e6
d4
db
f3
d1
f4
1f
e5
ef
2a
0b
05
0e
da
02
15
cf
16
04
04
0d
f2
e2
1a
33
ec
f3
03
03
fe
07
0d
ec
07
00
00
00
00
00
00
00
00
00
00
00
00
00
00
00
00
fd
0c
0e
fa
ed
ef
21
08
1b
02
08
e9
03
04
08
ff
24
24
f5
f6
ee
02
c8
0b
26
27
b8
d9
fa
db
0b
f0
2e
e7
f3
eb
fd
ec
02
12
1f
e8
f7
d7
17
12
f0
13
b1
09
1d
f3
e3
17
18
e0
2f
09
bf
2d
f5
36
08
e4
07
01
16
24
06
fe
17
1a
06
0e
07
fd
fe
fc
0f
ee
0e
0e
05
0d
09
ec
1e
f4
f9
f1
15
01
06
f1
fa
0e
10
0f
17
14
06
e3
1d
f0
14
fc
00
02
ed
0a
0c
f9
31
2c
f2
07
13
0d
ab
e4
15
fe
10
dc
05
0c
ec
00
20
10
03
fa
2f
f9
03
04
21
ff
f6
dd
fd
fa
eb
0f
05
1b
eb
2c
fd
00
f2
00
1c
f9
19
ee
25
0f
f6
f3
06
ed
23
12
06
0e
f5
1d
02
fa
e2
16
09
ed
12
dd
00
0a
08
0f
01
11
09
f0
f9
ee
0e
09
00
fc
db
19
e4
ff
0f
f8
f0
e7
68
f4
f6
dd
37
03
e5
eb
fb
06
0c
05
fa
e8
14
2d
f4
30
26
28
d9
e7
20
d7
f3
f4
03
f3
07
fe
f9
e5
f8
1b
fc
fa
20
e7
19
19
e0
f5
00
00
00
00
00
00
00
00
00
00
00
00
00
00
00
00
f5
f8
0e
13
fc
20
09
12
f3
f9
00
04
f9
12
08
0c
26
0a
e1
e4
1c
f7
1b
08
f3
35
1b
1a
eb
08
eb
f0
ee
06
0e
08
4a
14
00
0d
c5
fc
3c
f4
e9
fe
04
12
e1
13
1f
dc
19
f2
fe
f9
f6
ff
ca
20
21
0c
d0
18
09
10
03
0c
13
ff
f2
00
ff
ff
fd
f1
18
05
09
02
0d
0c
0d
1e
fd
fe
0b
01
14
11
01
0e
fc
07
07
f8
fb
f5
fd
fc
f4
04
f5
0c
e5
f4
0a
f7
fe
0e
fd
f7
fd
48
04
06
17
fd
07
ed
e0
04
0e
e1
e9
f5
eb
ed
02
2d
ff
0a
ff
eb
cd
29
f3
2c
ec
14
ed
0f
30
02
1b
fa
fc
f7
0f
ea
06
0e
0d
0a
f0
04
ef
f9
0b
fb
16
e7
e1
ee
eb
18
29
ef
e3
e8
d8
0e
0e
d5
ec
08
f1
ef
00
13
ee
f8
f8
ea
ff
da
ed
16
f6
dc
f1
fe
bd
e5
ca
fc
f5
f8
00
fc
f9
f9
f1
e8
e5
e9
29
ed
47
67
09
d9
21
c0
e4
e3
ef
22
e6
16
48
08
ec
f4
19
e8
23
0b
f1
13
f7
07
08
14
19
e3
f2
15
07
f9
00
00
00
00
00
00
00
00
00
00
00
00
00
00
00
00
fd
1b
ed
0e
e4
f3
0a
04
f9
06
01
08
fd
ff
11
00
0c
12
03
fa
fc
05
06
f3
ed
f2
0d
fd
fb
00
0e
0f
fc
e8
f5
f8
e4
f5
f9
00
0a
fd
ec
0e
30
17
10
f0
f4
18
e4
f3
f1
f4
f4
00
fe
e8
f1
01
3a
ec
fa
d5
14
e1
f9
e2
0d
0a
f6
05
f8
db
17
f5
d3
0b
ff
e7
ed
f6
05
02
08
f6
01
0b
ea
08
f7
0b
1e
12
fd
e9
22
28
f3
df
f2
fd
f7
fa
f6
e8
2e
10
ff
00
30
fa
ef
15
fe
e0
12
12
0a
08
22
1f
d7
17
06
0d
13
08
ee
17
fc
ff
fd
00
fa
00
1e
00
1c
05
00
fa
f2
11
fa
f4
fd
1a
0f
01
0a
0d
12
e1
ff
fe
ef
f6
ec
eb
23
f3
b5
27
00
16
eb
17
fa
19
f9
ee
d9
fd
03
df
1a
05
f0
ed
e9
14
17
26
f4
0a
df
e9
f4
0e
fa
16
01
eb
f7
04
15
11
0a
10
11
0a
f8
f4
20
ff
fb
ff
12
01
1e
db
25
2b
ef
19
dd
f3
34
ff
29
1c
0c
11
25
04
0f
02
14
f9
f7
15
e2
ea
f7
1d
19
eb
13
10
08
e9
01
02
06
07
fe
f2
05
02
03
07
09
0a
00
01
f2
ff
07
f9
f8
f9
f6
08
ef
04
fb
0a
13
05
fc
00
02
f6
f5
f9
fa
f0
01
fe
0f
fe
f1
0f
04
f6
f8
05
01
0c
f5
06
f7
fe
ef
23
03
fd
df
0e
fb
e9
fa
ff
e7
d6
31
c9
f6
27
22
23
f4
04
2a
f7
0b
1a
2b
e8
02
e4
2c
35
12
f4
ed
17
11
1a
f1
f0
f9
39
fd
0c
0d
e9
3c
d9
fc
1b
26
f3
09
df
07
07
08
e0
12
03
fa
eb
fb
f5
06
f5
f7
07
fb
fa
1c
1b
fd
d9
03
ff
05
15
e9
fe
fb
e1
e1
05
e2
10
f1
fd
18
0a
00
19
1a
2b
2a
f7
eb
10
17
15
fc
f9
18
08
04
e3
19
f4
05
05
05
f5
07
0f
0b
f9
ef
f3
00
12
ee
17
08
fb
0f
0c
f6
1c
62
16
f7
1c
02
2f
e7
06
02
3b
fc
f8
fa
fd
07
13
27
03
f9
09
13
fa
ed
e1
ff
e2
0d
fd
23
13
ff
1a
05
04
e6
1c
f6
01
ff
03
06
0a
17
02
36
bb
f3
0b
07
f2
b8
20
10
48
f2
f2
e7
f5
c9
12
02
da
e7
06
e9
e5
f7
f8
03
01
16
fa
10
d5
06
12
f5
02
fd
17
03
03
14
05
06
ff
eb
f5
fb
fe
0f
0f
fd
f4
f6
fe
ec
fa
03
03
04
fb
10
e8
05
12
fb
19
12
04
fe
03
fd
f3
fc
f9
05
06
fe
f1
02
fb
fd
02
fa
ed
f4
13
ed
1b
e1
ea
03
f3
09
07
d3
09
02
f9
09
10
ed
e7
e1
22
d9
1a
0e
20
b6
1e
3d
ec
ee
f7
17
18
21
00
02
f3
6a
e9
13
14
ef
e6
cc
f8
24
eb
f6
ee
30
fe
ed
fe
df
ff
e6
f7
f4
f9
0c
00
f6
39
0d
fd
0f
f7
14
08
dc
ec
fc
17
0b
08
f2
eb
21
12
02
f9
2e
29
e3
2f
2c
fc
23
12
e1
e2
02
29
07
f0
06
0e
e8
14
f2
fd
06
10
1c
fa
ee
eb
e1
0e
fd
12
f9
02
fd
fb
ed
ff
27
06
08
03
fd
fa
13
0b
f8
f3
f3
fe
e0
f4
32
e8
0e
2f
cd
fd
06
09
fd
e7
ff
37
f6
fe
fc
03
d4
fa
e5
09
06
02
f8
f8
10
f1
fe
f9
0c
fa
eb
16
f3
03
fb
fd
01
00
10
fb
e8
10
0a
e6
10
f5
c8
01
27
2e
bd
2f
e4
07
27
eb
d0
e7
d6
32
06
ff
ff
07
1a
eb
fc
0f
d3
1f
f6
26
e5
de
f1
16
0d
02
fc
25
f7
fd
15
0e
fa
0b
ff
19
08
fb
08
fc
0f
f8
fe
01
04
ed
09
06
13
fd
03
07
fe
03
0a
f2
f0
f3
ee
09
02
10
01
00
16
ff
f8
00
03
fe
fd
13
00
f7
0f
fc
08
f2
03
05
1f
1d
02
03
fd
dd
05
f7
0a
0c
14
11
37
f9
e4
fd
c4
d3
08
f1
3b
09
d3
f4
fe
01
e9
02
ef
f1
d3
fe
de
40
20
fc
13
e5
e9
0c
0c
ff
2e
fa
f7
f4
fc
11
f3
19
e2
f4
0d
f9
0c
df
f4
0a
28
e8
1e
0b
0d
0f
10
ff
ff
04
fa
ee
00
0c
fb
fa
f5
e9
d6
14
09
f4
c6
15
0f
02
f9
e7
04
15
fe
f9
f9
e5
f0
04
06
10
e2
02
fb
19
14
f9
f2
da
06
f5
f4
fb
0d
fa
f6
fe
f4
0b
fd
ef
ea
06
fe
fe
cd
02
f4
14
e1
f7
19
eb
18
ed
ed
06
60
f5
f8
d4
1b
09
ef
e6
01
f6
1a
fd
10
f3
e3
0a
f7
f1
08
0f
f9
f5
ef
0f
ff
fe
f0
05
01
fe
10
03
fa
fe
09
03
00
21
3c
15
2c
ed
e0
e5
11
2e
f4
08
22
26
ec
ea
eb
03
e4
01
02
e9
03
ec
10
f6
f5
0c
fb
0c
19
0c
02
0c
fd
01
e3
f2
0c
0a
08
f8
ef
04
fe
f8
f6
09
f2
0a
0e
00
04
fa
ff
08
12
fe
fd
05
00
00
10
09
fc
00
2e
00
dd
f0
09
05
25
01
22
2d
00
00
ef
0c
fe
ea
0e
00
02
00
01
07
fc
f9
15
05
00
00
15
f7
ed
fb
f3
00
f7
0d
fd
02
00
21
f6
f7
00
00
07
e6
fc
ef
0c
00
f1
fe
01
00
ea
e8
e7
08
00
00
15
01
1d
00
02
00
19
fa
ff
08
f5
fd
eb
ea
00
00
23
fb
f9
ea
f6
00
14
23
f4
f9
13
01
f3
f8
00
00
f5
de
f3
fa
0d
00
f4
ff
f8
06
fc
e4
f2
f5
00
00
ef
f9
2b
03
00
00
00
14
f7
00
fa
0f
04
f4
00
00
f8
f8
17
ea
09
00
07
0e
e6
db
02
33
12
f0
00
00
22
26
09
07
04
00
1a
0b
fe
f3
e2
22
e9
06
00
00
08
0d
e9
e3
15
00
db
f2
11
f9
0f
f8
25
12
00
00
11
25
fb
03
00
00
08
01
ff
05
f8
04
f1
01
00
00
fd
05
e3
07
05
00
04
fb
f2
f5
f9
24
f5
03
00
00
fd
08
fe
0b
f0
00
18
fb
00
03
e3
fc
fc
0c
00
00
22
fc
fb
f9
ec
00
f3
03
f5
0a
27
09
fa
03
00
00
07
00
fd
08
eb
ee
07
f5
fa
f4
f8
e4
ff
e7
0c
04
02
ea
0b
19
1a
1a
24
fb
0c
d2
de
f9
fc
ee
10
08
fd
14
f6
fb
01
fc
f2
ef
f9
0e
f8
03
0b
f8
0a
00
09
0e
ee
f9
0a
f8
0b
05
ed
e8
fe
f8
df
0b
f2
10
2b
12
e1
06
1b
e3
12
00
ee
f0
ec
fa
17
0d
f0
07
ec
07
eb
f6
0f
f8
08
10
f2
04
e8
03
11
05
f1
04
f4
ff
11
d7
0a
f7
00
ef
ff
1d
1d
e4
fc
df
f9
fe
00
fd
0a
fc
00
e9
f3
0a
fd
eb
0c
00
02
fe
dd
e4
f7
10
ed
00
f5
e6
fa
fd
de
14
25
e3
f1
08
ed
f4
ff
e3
f6
10
25
0d
e4
fe
08
0a
fe
ee
1d
25
f7
02
0b
e4
09
0e
f7
07
00
0a
ea
fe
0b
0e
05
fc
08
f6
25
00
0d
13
03
03
1b
e4
0c
e3
fa
ff
f8
06
10
06
07
01
0d
00
ec
eb
12
09
f3
02
fb
e0
ff
fe
f8
f6
f5
f2
e6
16
0e
ec
12
0b
f5
07
f6
09
ec
f9
d8
0b
03
12
ef
ee
e8
e6
03
f5
e9
f1
05
d7
02
f3
f6
de
cb
06
fe
22
f9
0e
05
f3
0f
01
18
09
f3
11
ef
12
0c
ef
00
03
f6
e2
fe
ef
ec
01
f8
03
f0
eb
0f
0a
1e
00
25
27
12
13
0a
f8
0d
02
f7
eb
01
f7
13
ec
ef
00
07
07
0c
07
02
f4
05
01
01
06
fe
f4
04
e7
0d
00
fc
f8
f2
03
f9
f3
f9
fe
07
fd
02
f8
ff
10
e2
00
f2
02
f2
0c
fa
ff
07
1a
ee
02
fa
10
ee
ff
00
00
fb
0d
14
18
03
0e
04
08
e4
03
04
f5
02
fc
f9
00
19
f7
12
dc
bf
fa
e1
fd
f0
05
f1
0d
db
12
f9
00
fd
04
04
e6
04
fc
0c
13
e6
01
08
17
f3
04
ff
00
fd
0b
00
1a
fe
ff
f7
fe
fe
08
f4
02
f7
e0
ec
00
14
12
de
e8
09
0d
f1
01
0f
13
01
20
c5
0c
03
00
2d
f5
0a
e7
06
fe
fd
09
e8
04
f1
f5
f0
06
fe
00
05
09
17
18
f8
0d
0c
32
0e
02
11
e6
07
fc
fe
00
f6
fe
03
fc
0a
01
13
ff
05
00
09
01
0a
fd
f8
00
ff
0a
09
f7
00
f4
06
08
f0
04
07
fd
0f
fe
02
00
13
f8
e7
f9
21
f8
00
ee
2a
04
f3
f0
fc
da
f1
00
19
07
f9
24
04
fa
01
f2
05
f0
02
05
09
fb
f9
00
ff
1c
f7
ff
1a
02
03
01
06
01
f0
f2
03
02
e6
0f
1c
1f
02
f8
20
02
04
23
ec
fa
03
1c
ea
ed
11
f3
f0
fc
06
ff
ff
fe
f8
ed
06
03
07
f5
f8
00
02
ff
0e
f4
e2
09
14
fe
03
f3
fa
0b
04
f7
01
03
1f
ea
ee
0b
e5
00
00
fd
f1
04
f6
f4
08
1f
0b
21
09
11
fb
04
07
0a
e9
07
11
0a
0b
09
11
ed
f8
f8
ea
fd
f6
01
0f
d8
e7
f1
e1
f7
f4
16
0d
d9
19
ca
07
18
08
fa
00
04
f6
fd
09
f6
fa
ee
f5
05
1a
08
0d
fa
10
03
09
fe
e0
fe
ee
0b
08
da
1a
fb
00
f4
f0
f3
d6
3e
fc
12
f6
ff
07
e6
07
df
f5
29
d0
fb
dd
f6
ef
12
13
f8
04
06
07
f9
26
fd
f9
ef
18
33
11
f5
2d
23
0d
00
0b
f9
09
2c
ef
35
de
0b
06
f2
f8
06
05
f4
13
0c
f8
f6
02
06
fd
f4
13
10
07
12
07
0b
fa
f3
03
f2
06
0d
0c
07
eb
13
fc
04
1d
00
0e
f3
e1
ea
ea
09
e2
f3
ef
05
f2
1a
36
1b
12
fc
3e
da
1c
27
f1
16
f7
fa
04
fc
06
ff
04
de
f6
0a
f7
fa
1b
f6
ec
00
0a
02
fe
07
00
d4
f3
f0
00
00
ea
f6
00
00
00
00
00
00
00
00
00
00
00
00
00
00
00
00
06
d3
0c
00
1e
02
f5
01
d6
18
d9
ec
00
00
14
00
00
00
00
00
00
00
00
00
00
00
00
00
00
00
00
00
00
00
02
00
01
01
00
00
fe
02
00
fe
00
00
01
01
14
fb
eb
00
f4
03
00
06
f5
12
02
05
00
00
fc
02
fb
e9
16
00
12
0d
fd
0b
f7
03
15
02
00
00
ff
09
00
00
00
00
00
00
00
00
00
00
00
00
00
00
00
00
e8
fc
04
00
01
f6
00
f8
1e
08
01
f9
00
00
06
02
00
00
00
00
00
00
00
00
00
00
00
00
00
00
00
00
08
22
05
00
15
0d
0e
fd
f4
ff
d8
0f
00
00
f8
fb
0b
1e
ed
00
ee
02
f9
00
01
06
df
ec
00
00
ff
f4
0b
23
fa
00
44
ee
fc
04
ef
e7
1e
19
00
00
e7
ec
08
00
eb
00
22
f9
fe
fd
f3
fb
e9
19
00
00
d9
f5
00
00
00
00
00
00
00
00
00
00
00
00
00
00
00
00
f8
e6
27
00
1b
0b
07
07
eb
07
f1
f2
00
00
08
0b
04
e6
d9
e2
f2
04
e7
3c
1c
05
ee
1e
df
f9
00
f8
00
00
00
00
00
00
00
00
00
00
00
00
00
00
00
00
ea
18
03
07
f8
17
f3
f1
25
02
0f
06
26
fc
01
eb
00
00
00
00
00
00
00
00
00
00
00
00
00
00
00
00
01
00
01
fe
01
04
00
00
00
ff
00
01
fe
01
02
00
fa
05
f3
f7
ee
f1
f8
f3
10
fd
f9
fa
ff
fc
04
09
fa
fa
14
ed
03
ed
e9
05
f7
05
01
0b
05
0e
04
07
00
00
00
00
00
00
00
00
00
00
00
00
00
00
00
00
fc
1e
01
13
fb
fc
04
e5
f7
06
de
fc
f4
e9
27
f0
00
00
00
00
00
00
00
00
00
00
00
00
00
00
00
00
1f
ff
c8
08
15
fe
36
05
1b
02
d6
12
eb
e2
29
d2
de
fc
13
e2
06
ec
19
25
0b
f3
14
1d
d3
fc
09
0e
0c
c3
2c
fe
05
0e
22
ef
f0
f4
fc
f2
44
e3
0b
ee
d8
07
e1
eb
1a
fd
d0
14
13
ea
e2
06
f6
1c
e5
1c
00
00
00
00
00
00
00
00
00
00
00
00
00
00
00
00
05
10
fc
03
f4
08
e6
f2
de
fe
03
fd
1e
01
fd
00
ed
0c
f2
10
29
0a
17
1e
06
f0
34
18
f6
fd
f1
00
00
00
00
00
00
00
00
00
00
00
00
00
00
00
00
00
11
e9
01
0b
00
09
d5
15
f3
01
f6
08
f7
1b
ce
00
00
00
00
00
00
00
00
00
00
00
00
00
00
00
00
00
ff
01
00
ff
00
01
01
00
ff
00
00
00
ff
00
ff
00
0d
ff
12
ef
02
02
f9
0a
01
f4
fc
e5
0e
f9
f5
00
e4
06
07
f1
f5
fc
ff
14
03
06
15
04
f1
15
ec
00
00
00
00
00
00
00
00
00
00
00
00
00
00
00
00
00
f9
ee
fe
f1
fd
fa
0b
f2
1b
02
00
f6
fd
0f
34
00
00
00
00
00
00
00
00
00
00
00
00
00
00
00
00
00
fa
05
c0
ed
0b
fa
f8
eb
d4
f8
38
e4
0d
f1
e0
00
f5
f4
0f
10
d4
16
e5
36
d9
f3
c8
e8
13
19
10
00
ec
f6
0a
f8
e1
ee
06
1d
ff
07
19
2c
04
1b
f1
00
1c
18
09
2a
0e
ef
fb
f3
0d
05
02
f2
42
f0
e1
00
00
00
00
00
00
00
00
00
00
00
00
00
00
00
00
00
00
03
f3
ff
13
f1
f4
07
fa
0a
f1
de
e4
0a
04
00
2d
07
e2
04
c6
07
00
e7
f2
ec
0d
00
d0
25
ee
0c
00
00
00
00
00
00
00
00
00
00
00
00
00
00
00
00
0e
0f
01
f7
fd
06
04
ed
06
f2
23
05
e5
d4
f4
f1
00
00
00
00
00
00
00
00
00
00
00
00
00
00
00
00
ff
00
00
00
ff
00
00
ff
00
ff
02
04
01
03
05
00
08
0a
07
02
18
fe
00
e9
ff
fe
f2
06
08
fb
08
ef
10
26
ec
10
fb
f6
09
05
f6
05
f5
1a
01
f6
fc
0f
00
00
00
00
00
00
00
00
00
00
00
00
00
00
00
00
df
f1
e4
03
09
03
f2
f8
00
f5
08
0b
01
f4
09
04
00
00
00
00
00
00
00
00
00
00
00
00
00
00
00
00
07
15
fc
01
ff
fc
fb
0c
02
d9
07
f0
24
fd
0d
01
e2
1d
04
0d
04
fd
0d
07
f2
d9
cf
d6
0e
ff
de
12
1a
f8
02
00
4a
e4
ed
12
17
13
d8
ef
e4
00
29
32
ff
ef
04
fa
e1
f4
e8
00
ea
ff
f7
02
de
0b
e5
02
00
00
00
00
00
00
00
00
00
00
00
00
00
00
00
00
04
04
00
f3
04
fd
f9
f4
f5
02
0a
f0
07
04
03
18
f0
12
dd
00
0f
e9
fd
f8
16
06
e9
08
00
00
e7
eb
0a
e9
1b
00
f3
0a
17
f6
28
0c
04
18
00
00
20
13
09
09
e6
00
01
0c
ff
02
05
fa
16
ee
00
00
12
00
ec
f5
21
00
19
0b
02
fc
e7
02
0a
f0
00
00
fe
04
f0
f0
fb
00
f5
f3
f4
09
f7
09
f9
f5
00
00
2c
f8
e8
00
12
00
f5
15
1a
16
1c
f8
e8
12
00
00
02
04
00
0f
10
00
0a
fe
fd
f6
08
fb
00
08
00
00
01
fc
2c
fb
2b
00
f7
f4
28
0e
06
08
1d
29
00
00
06
ed
fb
f1
fc
00
2d
f6
ef
e2
0d
f9
fc
f2
00
00
02
09
db
03
e6
00
10
0f
f1
ff
eb
03
e2
f5
00
00
f8
04
fd
ef
1f
00
e4
f8
04
12
13
de
0d
13
00
00
1f
1c
ff
05
f8
00
ec
02
17
01
eb
f1
dd
f4
00
00
08
0b
00
00
00
00
00
00
00
00
00
00
00
00
00
00
00
00
00
00
00
00
00
00
00
00
00
00
00
00
00
00
00
00
f0
e8
ff
00
04
0c
0d
e8
03
0a
00
ed
00
00
15
15
05
f4
02
00
03
0b
fb
06
d5
28
0e
ef
00
00
ff
e7
19
f1
04
2a
fd
de
10
db
e7
0a
ef
d6
27
08
00
ef
00
ff
f5
10
f7
e3
0a
ee
e4
0c
29
09
fc
0a
3a
26
fa
04
0d
f0
09
e7
f4
06
18
15
06
ff
de
10
ec
f0
0c
f7
f3
f6
09
01
20
fe
0d
ed
13
10
09
f5
00
fa
f7
fb
0f
02
f8
f8
06
10
0b
ef
14
03
12
1e
17
f1
16
1e
09
ef
38
28
e8
06
e1
03
f6
2c
fa
f3
03
2a
f0
0c
ea
0a
fb
03
f5
03
0d
10
13
0d
e3
ee
0f
0b
19
0e
08
16
f8
02
0c
05
3c
e7
00
d8
04
02
ca
1e
fc
bc
19
14
df
0b
2d
e7
09
02
1c
18
de
c9
39
ff
f8
0a
ea
f6
0a
0c
fc
0b
f7
05
ff
0b
fc
05
04
1a
e7
29
0e
15
0d
df
e1
ed
04
09
f4
04
f6
f6
e7
fd
fd
fe
f4
f1
e2
23
f6
f0
eb
ff
f6
03
f1
ed
29
32
00
00
00
00
00
00
00
00
00
00
00
00
00
00
00
00
00
00
00
00
00
00
00
00
00
00
00
00
00
00
00
00
07
01
f4
f9
18
ed
f3
05
fc
fc
09
0f
d5
12
ea
f7
07
f3
f7
f8
ef
ff
f0
fe
19
ff
ff
fc
21
00
04
f3
0d
f3
04
dd
10
0a
02
21
36
16
17
73
fe
09
ec
00
f3
12
28
f7
ef
fa
0b
ef
0a
03
e6
ee
f2
22
e7
00
fe
fc
fd
ec
f8
0b
07
f9
f6
fe
ff
0c
ed
f4
f4
00
06
09
15
fd
fa
fb
f7
04
f6
fe
f7
ea
f5
f5
10
00
15
04
fa
0e
fd
f9
01
f7
f7
fc
04
f6
f4
03
12
00
fa
11
e1
bb
07
f7
09
ec
13
e1
0e
1e
08
fb
fc
00
e8
f7
18
10
0b
11
fa
f7
02
0b
f1
df
f3
0e
ef
00
07
f2
e6
f7
f5
ef
ec
08
15
f8
24
e7
f8
f7
34
00
ef
13
4d
09
00
09
f0
08
04
0c
d2
dc
d6
1f
10
00
e5
f6
17
08
05
01
0e
02
ef
07
fc
0a
19
f6
ef
00
f7
0e
08
00
14
fa
14
02
10
fd
0f
e8
03
dc
fd
00
e7
0e
32
e9
eb
09
0c
10
fa
f5
0d
04
20
f8
ee
00
00
00
00
00
00
00
00
00
00
00
00
00
00
00
00
00
00
00
00
00
00
00
00
00
00
00
00
00
00
00
00
00
0c
f9
17
e8
0a
09
16
09
e1
03
18
fd
18
eb
de
00
f3
fe
1d
ec
fe
fe
04
0b
02
fc
13
06
02
18
02
00
ea
27
28
ef
09
fc
f6
21
f2
ed
0f
13
f1
e7
1a
1a
17
50
fd
db
23
0e
1d
05
05
53
13
13
18
18
14
0e
fa
05
0e
fe
f8
f6
01
16
f4
08
0a
18
f1
08
f9
0f
00
f8
fc
01
ff
ff
fc
fc
fd
fc
f9
ee
1d
f3
12
07
fa
0e
f5
09
ee
02
1d
fa
f7
18
f6
19
f7
0d
14
f0
17
14
01
fc
f7
0b
f9
f1
fd
ff
02
f6
de
0b
0d
16
e6
01
05
05
e7
01
fa
fe
0c
fb
06
17
09
e3
e7
18
14
ff
fb
ea
eb
09
ee
18
0b
19
f2
e2
09
f8
15
ff
cc
07
f8
02
eb
fd
e8
f0
15
e9
fe
ee
09
de
e6
22
f9
e6
24
00
09
1f
00
01
00
f9
ff
05
00
07
05
fb
20
0d
e8
09
0b
03
fc
f8
f3
13
f0
28
e4
e0
f9
f3
27
e9
0d
fb
0f
00
ff
00
1b
17
ef
16
16
0b
0c
eb
00
00
00
00
00
00
00
00
00
00
00
00
00
00
00
00
00
00
00
00
00
00
00
00
00
00
00
00
00
00
00
00
0c
14
fb
ff
09
08
19
04
f1
0a
f3
f4
f5
09
e9
f3
18
f9
ee
00
0f
fa
fd
e5
04
06
fc
20
fc
fa
1c
06
f7
18
08
00
c0
17
f4
e8
18
e0
01
2c
00
00
f0
eb
4d
04
17
00
30
02
fd
1b
03
fc
28
1c
00
00
09
0d
05
13
e2
00
36
0b
08
e8
f7
0e
f6
13
00
00
0f
19
04
fb
03
00
13
fe
13
1b
08
db
fc
ff
00
00
0f
fc
ef
e9
e7
00
e3
00
0d
08
da
e6
ef
29
00
00
f6
12
00
00
00
00
00
00
00
00
00
00
00
00
00
00
00
00
3a
06
fe
00
28
15
f0
e2
16
18
ff
fd
00
00
d5
07
da
06
de
00
1a
0e
ec
0b
0e
fe
e9
ff
00
00
e5
0b
f3
f6
0c
00
da
03
f3
06
f2
33
14
e0
00
00
04
f3
00
00
00
00
00
00
00
00
00
00
00
00
00
00
00
00
17
0b
03
00
f2
00
fe
ff
16
09
f0
f6
00
00
f4
fb
00
00
00
00
00
00
00
00
00
00
00
00
00
00
00
00
fb
09
f9
00
ee
09
03
02
10
02
fb
f7
00
00
f5
f5
f4
f5
da
00
56
08
f9
01
02
fd
01
18
00
00
11
0a
00
ea
fe
00
09
0e
04
02
09
04
ff
00
00
00
16
0c
1a
09
1a
00
1a
01
fa
f9
e2
fe
09
05
00
00
0d
e2
37
dc
25
e8
1f
e5
dc
e6
b9
f9
2c
e6
12
c1
17
ef
0e
0e
f0
01
e9
06
ff
08
3e
0b
f0
08
fa
dd
ff
fd
26
05
d9
cd
d0
fa
ee
04
f5
f3
07
2a
f8
f3
e7
0e
09
f9
02
e9
f9
08
fc
0b
fd
0f
f8
0b
dd
fb
d8
1e
fe
f6
e1
f6
e7
33
26
05
f9
d1
ff
11
2c
e2
ec
22
00
00
00
00
00
00
00
00
00
00
00
00
00
00
00
00
15
e2
eb
fc
fb
e5
29
df
0e
2a
e0
ce
e2
27
ec
14
f0
11
f7
1c
24
f2
16
38
f6
f5
e0
25
f2
1a
03
da
12
fa
0d
f8
15
0b
f5
fb
d7
fb
0a
e3
0f
33
e0
f6
00
00
00
00
00
00
00
00
00
00
00
00
00
00
00
00
03
1b
05
05
ff
0d
fd
0b
0c
f2
03
02
e5
0b
fc
f2
00
00
00
00
00
00
00
00
00
00
00
00
00
00
00
00
16
0a
08
f7
f9
05
f2
0d
02
fb
00
06
f1
04
fe
f9
f0
f6
ef
f0
f5
f2
2c
06
0d
df
d1
12
e7
d9
e7
05
03
02
fb
f9
0b
ee
15
fd
f6
f1
ff
00
08
01
f9
02
1c
fb
ea
f2
fb
e5
ff
fa
0a
f1
fe
0f
09
08
0e
00
d3
f5
2a
fa
e6
06
e9
1e
1b
fc
fb
fe
e9
04
29
00
12
04
d7
02
24
0b
f4
fc
13
fd
28
f2
12
de
04
00
eb
0f
4a
db
ef
1b
0b
15
fd
f8
2f
3f
06
f1
04
00
fd
28
01
f7
fb
0b
14
03
de
fd
d3
fa
07
e0
f6
00
10
e8
23
0b
e1
e4
e9
f6
35
0b
12
34
08
fd
fc
00
00
00
00
00
00
00
00
00
00
00
00
00
00
00
00
00
f0
1b
25
f0
35
e7
33
00
f5
fe
f9
f5
eb
08
ce
00
26
f6
f5
15
f9
fa
f5
f1
0b
03
f5
f1
0a
04
0e
00
01
ec
05
15
e1
f5
e7
04
fe
ff
ee
33
f4
fd
07
00
00
00
00
00
00
00
00
00
00
00
00
00
00
00
00
00
09
f4
01
05
09
0c
f2
06
f4
06
fb
ec
f0
05
02
00
00
00
00
00
00
00
00
00
00
00
00
00
00
00
00
00
05
01
06
f8
ff
05
00
0a
f3
ff
f4
ff
f0
fc
06
00
07
fe
05
e5
0e
f8
1a
ed
fd
04
07
10
f7
1b
ea
00
f8
ff
00
f9
f6
fe
fd
f7
f1
f8
fc
f0
1b
f5
0d
00
f1
04
07
02
03
ff
16
d9
ee
fd
0b
e1
fa
f2
10
00
ee
0a
d1
fe
f1
fd
df
34
0d
07
f6
04
25
f0
28
0e
10
ed
fd
f8
06
fd
00
08
27
cf
13
f9
04
ea
04
eb
12
e4
09
04
26
14
eb
f9
13
01
08
ea
0b
01
de
0b
ed
ff
ff
10
e7
0a
ff
f7
fd
f2
f5
0a
10
fe
df
fc
18
f7
20
e9
ff
eb
f6
07
fe
f6
1c
13
35
f5
12
e6
00
00
00
00
00
00
00
00
00
00
00
00
00
00
00
00
05
ff
05
05
18
fb
0a
2e
ea
fe
1e
f4
f1
09
06
f9
f2
0a
07
f1
e6
01
09
e9
fe
f8
16
04
d5
0a
f9
f7
f8
e2
ef
08
df
ff
26
f4
08
f1
f0
ec
03
22
1e
ed
00
00
00
00
00
00
00
00
00
00
00
00
00
00
00
00
f9
03
06
0b
f5
fb
ff
30
ff
ed
f9
e3
04
f9
f9
01
00
00
00
00
00
00
00
00
00
00
00
00
00
00
00
00
f9
00
fe
03
e8
0a
ff
07
00
fc
fc
00
f7
fc
e6
f2
f5
fb
f7
f3
0a
0b
ec
e5
ff
df
69
37
00
07
12
0e
02
0a
fb
04
11
03
f8
f8
f2
0d
0d
05
ef
0b
09
0f
e7
03
10
fe
08
0b
01
e7
fc
0e
0b
e9
04
eb
14
0f
1a
fc
0d
00
f0
05
fc
01
03
10
f5
02
00
00
01
07
08
03
02
00
01
00
00
02
f2
07
fd
fb
00
00
0a
07
10
fc
10
00
ec
ee
ec
f5
ff
f8
24
04
00
00
13
02
00
00
00
00
00
00
00
00
00
00
00
00
00
00
00
00
00
00
00
00
00
00
00
00
00
00
00
00
00
00
00
00
fb
fe
0c
00
07
02
02
fe
05
f7
ff
f9
00
00
0e
04
10
f8
18
00
08
fb
1d
f6
00
16
0d
09
00
00
e0
18
fe
0e
09
00
05
04
04
08
fa
10
ef
f5
00
00
07
00
00
00
00
00
00
00
00
00
00
00
00
00
00
00
00
00
fa
f9
02
00
04
02
03
04
fb
01
02
fd
00
00
03
05
ee
f1
e0
00
00
0d
fe
1c
eb
ff
f5
05
00
00
ed
08
ff
f0
f3
00
e3
02
ed
0c
1f
06
fe
00
00
00
f5
ef
11
cc
26
00
07
0b
0e
14
1b
0b
44
0a
00
00
2a
fb
05
03
ff
00
18
02
02
fe
fa
fb
f8
08
00
00
12
ff
00
00
00
00
00
00
00
00
00
00
00
00
00
00
00
00
ec
d1
26
00
16
eb
fc
18
fb
e5
fb
ee
00
00
ef
f7
0b
04
fa
f0
0f
2e
f5
e6
eb
fd
0a
f6
03
f7
08
0c
fc
18
f5
01
03
f7
f9
ff
f7
0d
01
fc
f8
0c
03
f3
08
e8
f8
f3
de
f4
d7
04
29
19
f2
e5
d5
0f
e5
1e
00
00
00
00
00
00
00
00
00
00
00
00
00
00
00
00
00
00
00
00
00
00
00
00
00
00
00
00
00
00
00
00
02
05
fb
f9
fb
ff
fc
f8
04
05
04
0e
0d
09
f3
0c
10
fa
29
22
eb
fd
0e
eb
49
12
13
1c
21
03
4b
13
f1
06
ea
e7
0e
18
01
fe
fd
fa
fb
0b
00
0a
03
04
00
00
00
00
00
00
00
00
00
00
00
00
00
00
00
00
fe
04
00
f2
08
0c
fa
f7
f6
02
03
f7
fc
fd
05
ff
ff
15
f2
e5
15
01
ee
02
13
ce
07
e7
fe
f4
f9
06
d7
df
0b
11
08
1d
ed
f1
05
0c
ff
f7
16
2d
f9
ff
09
ea
0a
fd
06
ff
12
06
41
e4
1f
ce
0c
f4
13
fc
0f
f9
f5
00
09
fb
0b
f4
f4
0b
05
00
07
fe
06
fd
00
00
00
00
00
00
00
00
00
00
00
00
00
00
00
00
08
f6
f7
ff
fd
0d
09
04
18
00
f7
f2
eb
09
1e
ee
fe
f9
0f
f4
f7
0b
f7
06
f5
02
f1
0b
f5
f3
0c
00
f7
f8
ff
0e
06
03
08
04
f8
05
fe
f9
01
fd
01
00
f4
04
fe
0a
ef
0e
10
07
04
f7
1b
dc
0d
e8
e3
00
00
00
00
00
00
00
00
00
00
00
00
00
00
00
00
00
00
00
00
00
00
00
00
00
00
00
00
00
00
00
00
00
fd
04
fd
f3
fa
00
fa
01
f8
fd
f7
01
00
01
07
00
1f
f4
f9
0e
c8
f1
f3
fb
0b
fd
f4
f0
f8
16
14
00
f3
0a
fe
f0
03
05
03
04
03
ff
f7
09
fe
f9
f7
00
00
00
00
00
00
00
00
00
00
00
00
00
00
00
00
00
f9
fc
fe
f5
02
04
07
fd
f9
f9
f2
fe
fb
fe
f8
00
eb
ce
ea
0d
eb
02
d3
fe
06
01
03
01
0a
f0
f6
00
16
01
f9
35
17
f5
07
2b
ff
05
d4
0c
1f
ed
0e
00
0f
f2
0d
f5
07
f1
fa
17
f0
f7
fe
d8
06
f8
4e
00
ed
01
fb
eb
07
00
0f
fd
00
fc
fb
ff
0e
09
0c
00
00
00
00
00
00
00
00
00
00
00
00
00
00
00
00
00
0b
07
ea
f9
16
e6
fa
f2
e1
01
f5
81
e0
ee
0c
00
02
12
08
07
f1
0e
01
ed
0a
f3
fa
db
13
18
f2
0b
fb
01
00
fc
08
00
03
f4
07
fd
fd
1b
fe
07
f5
fb
25
f2
04
ff
ed
fb
0b
1f
02
2e
1d
ee
04
f4
e2
0a
00
00
00
00
00
00
00
00
00
00
00
00
00
00
00
00
00
00
00
00
00
00
00
00
00
00
00
00
00
00
00
00
f9
fd
fb
fc
0c
0a
00
02
ff
0c
f3
06
fd
fa
0b
00
fc
ed
08
f2
28
f8
f3
28
1a
16
23
0a
f5
f7
13
e7
02
17
fb
01
fe
00
fc
14
fa
0a
fa
ff
fe
0c
0b
01
00
00
00
00
00
00
00
00
00
00
00
00
00
00
00
00
00
11
f9
07
fe
00
0c
fb
fa
04
fd
06
05
06
0f
05
14
de
ef
13
ef
ef
d7
0c
13
f1
29
00
fc
02
04
06
e6
0a
16
06
f7
f1
15
ee
ee
19
db
ee
01
06
ea
fd
fd
13
e2
ff
e5
1d
e1
fe
e1
05
2c
f8
cd
fc
19
e1
fa
10
fa
ff
09
04
04
fd
01
01
05
08
08
17
0b
0a
00
00
00
00
00
00
00
00
00
00
00
00
00
00
00
00
e8
f4
0f
e5
e8
10
f4
e1
13
07
06
fc
02
08
16
fd
f4
1a
fd
00
fd
fe
eb
09
07
f9
ea
0b
00
00
fe
fa
bb
0c
02
00
1a
fc
f4
fd
23
f7
fc
f9
00
00
e1
01
10
04
fd
00
02
fc
0a
05
f7
fe
fb
f6
00
00
0d
03
e0
01
1a
00
fc
17
fc
17
00
dd
06
f8
00
00
01
fa
02
10
17
00
18
18
0f
0e
e8
e1
0b
f4
00
00
f2
02
02
0d
03
00
06
02
07
02
ef
0d
03
05
00
00
f7
04
de
eb
e5
00
04
f4
e3
ff
fe
d4
18
0d
00
00
14
0d
00
00
00
00
00
00
00
00
00
00
00
00
00
00
00
00
f0
fe
f8
00
07
16
0e
21
fe
0e
dd
f7
00
00
fb
08
06
00
e9
00
fa
0c
0c
f5
ef
f2
0d
fa
00
00
f5
fd
d0
ec
a1
00
02
15
dc
0b
f1
e5
e7
26
00
00
0c
31
ed
f0
ce
00
ef
04
f4
02
f4
31
e2
f6
00
00
0c
1b
08
0c
f1
00
00
fd
07
f9
f6
f1
f9
11
00
00
05
f9
0e
07
14
00
fc
14
f0
0b
22
dd
f5
fc
00
00
ef
07
00
00
00
00
00
00
00
00
00
00
00
00
00
00
00
00
02
0a
fb
00
ec
ec
f7
09
25
d6
20
12
00
00
32
04
13
f1
eb
05
fb
18
02
03
e2
0a
06
08
0b
ec
f3
06
16
41
19
18
dd
14
f8
f0
c9
f4
f1
27
04
f9
fe
1f
02
ff
fc
fa
fd
07
f9
fa
fd
01
09
fd
f8
f6
03
06
01
e3
09
f3
09
1a
0e
fd
f6
e2
01
f9
fd
cf
ee
13
ee
08
eb
e5
09
3e
f4
07
0d
e8
c3
16
10
04
e3
14
00
00
ec
08
fe
f8
fc
f8
20
f9
fe
f8
fb
f6
05
f0
08
e6
03
07
0b
e6
18
e9
f1
fb
e3
0d
fd
26
13
f9
00
00
00
00
00
00
00
00
00
00
00
00
00
00
00
00
08
fb
ea
0e
03
ea
e5
12
01
f5
e8
42
f4
f9
0d
1a
18
06
10
18
f2
02
26
ea
17
fb
f0
fd
d2
1e
e6
06
e3
02
f4
19
ed
f3
b7
e4
16
05
f1
f0
c3
db
2f
26
fb
eb
fd
14
17
fd
17
e5
ea
e8
ff
29
e6
08
1d
1a
02
0f
e8
00
f8
09
13
f7
f7
fe
04
f2
1c
ea
11
ff
11
fb
d8
ef
d9
22
db
0e
c9
13
03
04
ce
ef
17
0f
00
00
00
00
00
00
00
00
00
00
00
00
00
00
00
00
08
0a
04
35
dc
f6
0e
ef
f1
ec
fc
f9
fa
13
14
fe
f4
f8
05
fd
01
03
04
f4
0e
f9
05
0b
fe
18
1a
00
fb
1e
1d
fe
f8
ea
0f
f9
f8
18
04
03
0b
00
19
00
f5
f5
ff
07
01
ff
09
12
fc
fb
ff
f8
01
00
fe
00
e8
0d
f4
ec
01
10
f8
34
f5
f5
07
fa
f7
f8
ef
00
1b
1d
f7
1f
03
14
f1
1e
03
02
f3
ea
0c
f3
e6
00
ea
0d
06
00
04
05
f2
f7
fa
02
ef
01
f8
ed
f7
00
17
19
08
17
20
f3
f9
0d
09
f3
ef
09
2b
d6
ff
00
00
00
00
00
00
00
00
00
00
00
00
00
00
00
00
00
eb
33
0f
fe
fc
01
04
2d
1a
01
1b
14
16
f4
04
00
06
00
cd
e3
1a
ff
07
f9
f6
fe
12
05
0a
f9
06
00
f9
24
1b
fc
d8
05
26
13
14
ea
0b
06
05
d8
f1
00
08
0c
2b
fc
e5
12
04
02
f2
ed
df
17
f3
f3
01
00
fe
f3
01
fc
04
fc
02
06
0d
fc
ef
09
03
09
01
00
31
f7
1e
e8
10
16
e4
35
07
04
fc
08
30
16
ea
00
00
00
00
00
00
00
00
00
00
00
00
00
00
00
00
00
1d
ed
07
21
07
fe
e9
06
d6
00
f2
f1
18
1e
29
00
ef
f5
f0
01
02
06
00
10
f7
ff
0b
01
16
06
f5
10
f9
11
3c
e7
05
1c
0a
ef
11
f7
ee
1e
f4
f7
09
f0
06
02
ff
fd
fb
01
07
f2
08
02
10
fa
01
0e
fa
ff
1f
e1
f3
ef
ea
0b
0d
05
f0
f9
0a
1b
0f
f4
0a
f7
05
00
f3
0e
f9
09
02
0d
f2
ee
03
06
f1
e5
09
17
0e
0c
04
f6
fd
ff
02
11
15
f0
e2
fc
e7
f5
1d
07
0c
0f
12
f0
1b
f4
fa
0f
e1
10
f0
00
02
f8
da
0d
00
00
00
00
00
00
00
00
00
00
00
00
00
00
00
00
26
ef
f7
f0
0c
fb
03
ee
fe
e0
e4
fe
fd
cd
e0
fc
1b
0a
10
11
09
00
13
15
da
fe
23
1b
ff
f9
04
f4
c3
00
11
10
fb
0f
fe
e4
f1
cd
31
6b
e3
3d
f3
e1
f9
32
07
11
fb
14
0c
f9
f2
f1
f1
18
16
f9
13
ed
f3
03
fe
fa
0a
ff
f7
f9
fd
12
ec
ed
fe
fc
fb
00
0b
06
01
03
fc
15
0f
d0
0d
13
18
de
fd
31
df
fe
00
00
00
00
00
00
00
00
00
00
00
00
00
00
00
00
f0
0b
f5
10
1e
0d
0b
d4
06
fa
ec
07
f0
f9
e1
ed
05
f4
dc
00
ff
f9
fd
f6
15
11
ee
04
00
00
ec
f0
00
00
00
00
00
00
00
00
00
00
00
00
00
00
00
00
00
00
00
00
00
00
00
00
00
00
00
00
00
00
00
00
11
ff
11
00
f3
ff
f1
0d
fc
f9
0e
f1
00
00
08
05
0f
19
e3
00
03
f1
f7
02
f8
0f
ed
f2
00
00
12
1d
01
2e
11
00
11
ed
32
f6
f5
11
fa
f4
00
00
09
23
0a
06
e5
00
ed
fa
fa
00
2c
05
0b
2b
00
00
f2
06
00
00
00
00
00
00
00
00
00
00
00
00
00
00
00
00
00
00
00
00
00
00
00
00
00
00
00
00
00
00
00
00
f4
ff
fe
00
fc
10
fa
fe
02
de
04
01
00
00
e8
0d
0d
0c
f5
00
06
f8
0d
05
f4
d8
e8
f1
00
00
ea
f1
03
f9
e6
00
01
0a
e7
fd
dc
f9
fb
f7
00
00
fb
e5
ec
0e
19
00
00
0c
fd
f9
06
ee
f0
fa
00
00
00
08
f0
06
fe
00
fb
19
f7
00
f2
eb
0d
e3
00
00
36
fd
00
00
00
00
00
00
00
00
00
00
00
00
00
00
00
00
e7
08
fc
00
f3
08
06
ec
e7
f0
f2
04
00
00
05
f1
fa
f0
f8
04
04
01
09
0c
09
09
f3
fa
e1
ef
f8
f7
00
00
00
00
00
00
00
00
00
00
00
00
00
00
00
00
00
00
00
00
00
00
00
00
00
00
00
00
00
00
00
00
02
fc
12
02
db
f6
13
0b
30
f7
fd
f0
fa
19
f8
02
06
e6
e8
ef
0a
05
03
ff
fa
f4
fe
fc
fe
f7
17
07
1b
df
22
fc
fb
f3
1b
09
5a
d1
16
0b
ec
d4
12
f0
fd
17
f1
04
01
ff
f4
e7
f9
31
fb
f7
f1
fe
fb
21
00
00
00
00
00
00
00
00
00
00
00
00
00
00
00
00
00
00
00
00
00
00
00
00
00
00
00
00
00
00
00
00
e2
03
d7
04
26
0c
f8
e9
e8
09
fa
12
1f
e6
fb
04
09
05
f0
f0
e4
12
0a
0b
f9
ee
13
0a
07
f5
fb
ff
d7
fe
ee
ff
10
fb
e8
f8
20
0c
32
ee
0f
f4
0a
00
f9
fe
fa
fa
22
03
e6
f9
f0
15
06
0f
fe
06
f8
13
10
09
fb
f3
e1
03
0c
ee
e6
02
14
e6
f2
f1
03
07
00
00
00
00
00
00
00
00
00
00
00
00
00
00
00
00
f8
0a
08
d5
0d
06
ea
10
17
0d
fb
0c
11
f4
e8
fe
17
fc
f0
08
f1
ff
03
16
08
02
10
07
0c
13
02
00
00
00
00
00
00
00
00
00
00
00
00
00
00
00
00
00
00
00
00
00
00
00
00
00
00
00
00
00
00
00
00
00
02
03
0a
fd
f9
10
fe
fc
f2
fc
f9
fd
e4
ef
0e
00
e7
ee
fb
d0
fa
0a
fb
fb
e4
06
f8
01
09
13
f8
00
16
ee
23
ca
d3
03
e5
f1
f8
e9
11
02
15
24
19
00
0a
f6
f0
33
05
f7
fa
0a
20
fd
d0
04
03
f5
e4
00
00
00
00
00
00
00
00
00
00
00
00
00
00
00
00
00
00
00
00
00
00
00
00
00
00
00
00
00
00
00
00
00
1d
fd
0b
29
f4
fd
d7
03
fe
04
e2
f3
1b
f5
12
00
fb
f2
04
08
f7
00
08
1b
f6
f9
11
fd
fc
10
11
00
1e
f3
23
0e
f7
06
f5
de
f5
15
ec
0b
ea
01
15
00
0c
05
07
db
ff
f5
04
f8
f7
03
fd
0e
fe
0d
ee
00
e2
f1
fb
ea
24
f8
19
ea
00
fe
e8
11
06
e7
08
00
00
00
00
00
00
00
00
00
00
00
00
00
00
00
00
00
f4
14
17
ff
07
f8
1b
15
f1
f7
f7
f8
0d
e2
04
00
16
f9
06
fe
fe
fc
01
06
f5
17
eb
fd
12
07
f3
f8
00
00
00
00
00
00
00
00
00
00
00
00
00
00
00
00
00
00
00
00
00
00
00
00
00
00
00
00
00
00
00
00
09
0b
fc
16
04
05
f6
16
ee
db
08
f1
05
03
14
f0
f0
05
2e
0b
0d
0d
0e
ed
07
02
f3
02
f6
fb
09
f8
18
e3
27
f3
21
13
fb
f2
17
f2
0c
da
0e
30
e3
07
f4
04
eb
03
0d
0f
03
d5
f3
f8
1a
db
0d
e6
f3
06
00
00
00
00
00
00
00
00
00
00
00
00
00
00
00
00
00
00
00
00
00
00
00
00
00
00
00
00
00
00
00
00
0d
ff
e8
0e
01
fb
ff
e0
ef
0c
15
d2
06
08
fe
0b
ea
f2
00
fb
f0
ff
fb
ec
0b
06
10
0e
f8
21
e7
ff
07
f6
f9
f9
ef
04
06
23
24
e3
ea
f4
13
04
eb
10
1f
04
0c
ef
f3
10
17
f0
14
39
ee
e5
f4
fd
ff
ff
fa
e1
0e
fb
18
03
fe
08
0c
01
fd
0c
12
1a
01
0c
00
00
00
00
00
00
00
00
00
00
00
00
00
00
00
00
0d
f9
f7
e9
1a
01
03
f1
fa
0f
dc
ff
0b
16
00
fd
f8
06
ff
00
f4
f7
ee
0c
10
e8
1c
10
00
00
0f
09
2a
0f
00
00
ee
03
ff
15
29
f4
fa
03
00
00
07
e9
0f
01
fe
00
f4
f3
08
fa
07
10
06
fd
00
00
e5
fb
f7
01
fb
00
01
06
fb
04
f6
12
f1
f2
00
00
0e
08
ff
f0
f7
00
08
fc
f6
fe
fa
00
01
02
00
00
12
11
fb
fb
ec
00
00
00
fd
07
fd
0b
02
f8
00
00
03
ff
fa
05
f1
00
1a
08
f8
fd
13
e1
ef
ef
00
00
d9
16
0e
f9
0f
00
20
0e
f2
fd
ef
f4
da
f9
00
00
1c
0e
10
f2
f2
00
00
08
fc
0b
ef
12
f9
08
00
00
18
fd
fb
02
fc
00
ff
fb
fd
fe
03
fa
ff
01
00
00
ff
01
f9
0d
f4
00
f0
23
f4
0c
12
05
d7
00
00
00
06
eb
fc
03
08
00
06
04
f9
f9
fc
0b
fd
fb
00
00
e7
00
01
01
1a
00
f2
0e
08
fe
01
ec
e9
f8
00
00
eb
13
f1
fb
fe
00
0d
0b
fa
00
f9
06
04
f8
00
00
01
07
05
04
f4
00
f6
fc
fb
fb
f7
09
f4
fb
00
00
01
fe
f6
fa
fc
00
0f
fb
03
fd
01
e9
fe
f3
00
00
f0
fc
08
13
e1
ec
fb
01
fc
06
dc
e2
04
15
e7
07
07
f8
0b
f7
02
e9
fc
ec
fb
fc
14
f5
1e
ef
d7
d3
0f
f4
2a
01
01
ff
03
03
02
0e
14
08
fd
02
ce
ff
0a
f5
fb
03
e7
e9
13
08
f1
f6
f6
f7
01
14
fa
0e
02
01
03
fa
23
f7
12
0a
0e
08
ec
01
05
01
ff
03
fc
0d
f1
fc
fa
f1
03
11
f1
04
01
16
ff
03
01
fb
17
19
05
ea
f5
12
f9
dc
f3
19
ee
fa
05
4d
eb
0a
12
03
ec
15
09
0a
09
09
10
05
e4
fc
f3
f9
0f
0d
f0
fc
ff
f2
f2
f4
01
ef
f9
f5
0e
ef
05
ea
02
03
28
03
04
09
fe
04
fa
fe
03
fc
05
02
f8
08
f9
f8
03
03
df
06
0b
e2
27
f3
f5
2b
22
e7
f2
15
f4
21
eb
01
08
fd
fb
ef
15
08
01
fe
07
03
f4
f7
ea
f9
06
fb
06
01
f0
f7
26
18
f8
fa
f5
ed
f6
0a
09
ed
01
25
f0
f9
02
f5
07
fd
0d
f6
ff
09
fc
05
f4
fe
fa
fe
fa
f8
f2
f3
fa
01
f9
fb
03
08
03
05
f5
00
08
f5
10
07
10
f6
0e
f6
09
1e
06
ef
0b
04
f1
f6
f5
fe
e3
09
2d
35
10
06
f6
00
fb
05
df
f5
26
00
fc
00
fa
ec
00
ee
da
04
fe
16
e4
f9
ef
12
11
14
e4
00
f7
e0
08
f9
fc
fc
ff
0d
f9
03
fc
01
05
fe
f1
00
f0
0b
09
ef
ff
fe
f7
04
f5
03
00
13
03
00
ee
00
f3
07
fc
f2
07
02
19
ff
fe
fd
09
1d
08
0c
f6
00
04
fa
f9
13
0d
0c
fb
1d
ff
00
05
21
06
fc
01
00
07
f9
ef
0b
0d
e0
f4
f4
f9
fd
19
f0
f4
0c
e4
00
0b
f8
f7
01
05
fc
fd
15
eb
0f
f4
f5
0d
0b
15
00
f0
07
fc
f8
03
0c
15
0f
ed
04
f8
fe
fb
09
e3
00
08
01
06
f8
fe
ff
06
02
02
00
04
03
03
02
fb
00
08
14
e0
08
ed
fe
10
e1
f4
0c
05
e9
00
e7
f5
00
f3
01
00
eb
f8
f4
f7
fc
ef
f3
0b
ef
08
f4
f0
00
17
11
02
e7
f7
fe
ed
f3
05
00
f1
15
f3
0d
dd
00
03
ff
ff
16
07
fd
fc
08
f4
00
ff
09
05
e7
01
00
ff
09
02
eb
05
0d
10
0f
01
fb
04
0b
0e
ed
f3
00
eb
09
1a
f5
11
07
08
12
e7
fe
10
fb
02
03
fe
00
f4
25
0c
f7
f4
f3
f7
37
01
e2
03
16
12
02
d3
0d
e8
1f
08
f2
fc
fb
03
e3
fd
1e
06
f3
f2
0b
f1
12
11
0b
1c
15
01
f2
04
13
0a
f0
fd
ee
03
f9
fa
f6
08
08
fc
01
fd
0a
0c
fe
04
06
f6
fd
01
06
03
f9
f5
16
fd
ff
e5
0b
07
f9
e4
13
f8
15
fb
01
04
02
fd
fb
ff
00
f9
0a
09
e4
13
f8
f9
fc
f4
11
01
f1
05
48
1d
03
fe
d7
03
14
ed
fe
0f
0c
dd
c9
1b
04
e2
0c
f3
0e
fc
0e
06
f7
fd
fb
0c
f6
ec
fc
ec
0a
fa
28
ed
09
0c
fa
0c
fb
fa
fe
fb
0e
13
02
25
f9
04
00
04
01
06
ff
00
02
ff
fa
f7
07
01
fc
f8
fe
f4
ee
0f
fe
d6
f2
13
3a
16
f7
ee
2a
f1
fc
e8
08
20
f6
14
fa
f9
f7
fd
1b
02
f9
01
f6
1d
f0
10
00
17
10
00
0d
e2
f9
04
e5
03
11
01
de
0f
f1
1d
f1
03
00
07
ff
03
06
ff
ee
f6
05
14
03
02
01
f8
ff
fe
14
0a
00
01
03
fb
f8
03
00
e6
02
02
0a
f1
01
0d
f3
0b
fe
fc
10
0a
04
09
f3
fa
0e
fe
f7
f7
f1
00
00
00
00
00
00
00
00
00
00
00
00
00
00
00
00
fe
fa
21
f2
e4
c9
06
1d
0d
f4
c8
fa
d9
13
15
10
ff
0d
0a
09
e7
11
02
06
11
fb
00
08
f2
0e
0c
10
f3
1a
08
0c
00
06
f9
16
ff
f7
ec
05
fa
03
f5
ec
11
fc
2b
1b
05
0b
ca
01
12
09
db
0b
1d
04
e8
18
00
00
00
00
00
00
00
00
00
00
00
00
00
00
00
00
04
dd
fb
0e
f2
26
03
05
07
0e
fe
d7
09
fe
0d
0a
1e
e0
f9
12
f2
1b
1c
0b
20
fb
e1
27
f0
fd
07
1f
f0
01
19
2e
e1
0f
11
fa
0a
ec
f9
f4
b8
0e
28
13
2f
ff
f3
00
1f
f1
fe
1e
f6
fd
f5
f2
f0
10
0e
fd
00
00
00
00
00
00
00
00
00
00
00
00
00
00
00
00
ff
d3
18
1f
e2
17
17
f3
09
dd
ef
f6
e8
23
32
26
00
00
00
00
00
00
00
00
00
00
00
00
00
00
00
00
00
00
00
00
00
00
00
00
00
00
00
00
00
00
00
00
00
00
00
00
00
00
00
00
00
00
00
00
00
00
00
00
18
1d
f8
04
dc
10
f6
f8
f7
15
13
06
0c
15
12
eb
00
00
00
00
00
00
00
00
00
00
00
00
00
00
00
00
f6
00
0f
00
00
ed
ec
00
fd
00
23
2d
15
1a
00
d9
fb
00
04
00
00
fa
f4
00
0e
00
14
f5
0d
07
00
0a
06
00
e9
00
00
f9
fe
00
11
00
00
ff
f4
d9
00
06
ee
00
f0
00
00
e7
f3
00
f4
00
05
f7
0a
17
00
f6
00
00
00
00
00
00
00
00
00
00
00
00
00
00
00
00
0b
00
06
00
00
0f
ff
00
fb
00
03
18
e5
fb
00
eb
21
00
fd
00
00
ea
fd
00
31
00
e5
15
f3
0a
00
f6
04
00
23
00
00
02
ff
00
e5
00
0c
0a
ff
d4
00
fc
19
00
11
00
00
da
0d
00
f2
00
d8
09
01
f5
00
de
00
00
00
00
00
00
00
00
00
00
00
00
00
00
00
00
19
00
fc
00
00
09
0d
00
e4
00
1b
02
f7
fb
00
e7
00
00
00
00
00
00
00
00
00
00
00
00
00
00
00
00
00
00
00
00
00
00
00
00
00
00
00
00
00
00
00
00
00
00
00
00
00
00
00
00
00
00
00
00
00
00
00
00
0b
00
e1
00
00
f0
f8
00
fa
00
ed
e7
1d
d9
00
ee
00
00
00
00
00
00
00
00
00
00
00
00
00
00
00
00
eb
f4
10
06
03
00
df
f7
31
09
fb
13
00
00
fe
18
00
07
0d
f4
ff
08
f2
00
fc
fb
0e
f1
00
00
0b
f1
0d
ee
f1
fa
01
f8
fa
04
06
13
03
0f
00
00
ea
ec
05
01
0a
01
04
0f
16
1c
09
fc
f1
f2
00
00
fb
c3
00
00
00
00
00
00
00
00
00
00
00
00
00
00
00
00
03
0b
f9
fe
fe
06
d8
f1
f2
07
ee
12
00
00
0b
e6
de
00
1e
03
ff
26
07
f6
29
00
24
2a
00
00
e1
2d
0e
f0
fc
09
02
0e
22
fa
f0
ff
de
0e
00
00
18
da
19
eb
e5
f0
00
fa
fc
ed
ee
ff
f5
05
00
00
f6
c1
00
00
00
00
00
00
00
00
00
00
00
00
00
00
00
00
05
12
f2
fd
ff
ee
d5
d6
db
15
e0
10
00
00
e5
e2
00
00
00
00
00
00
00
00
00
00
00
00
00
00
00
00
00
00
00
00
00
00
00
00
00
00
00
00
00
00
00
00
00
00
00
00
00
00
00
00
00
00
00
00
00
00
00
00
ba
f1
1f
02
fc
01
01
10
2c
00
03
0c
00
00
fa
13
00
00
00
00
00
00
00
00
00
00
00
00
00
00
00
00
25
f6
c6
ee
21
00
04
04
1b
00
e1
00
0b
06
d8
ef
08
ff
05
00
0e
00
0e
ef
07
00
0f
00
0b
06
02
00
fd
08
e8
03
10
00
f9
fb
f5
00
f9
00
f5
12
f7
0d
e7
f8
10
f9
f5
00
e3
f9
02
00
f5
00
fd
1e
f0
1f
00
00
00
00
00
00
00
00
00
00
00
00
00
00
00
00
e8
0b
04
e0
e9
00
f7
16
d9
00
f8
00
fb
00
e2
09
27
f0
4d
22
03
00
05
14
45
00
15
00
2f
ee
03
0c
f2
0d
1a
c3
17
00
09
fe
e2
00
f1
00
fc
cb
c4
f4
d7
fd
f8
27
08
00
09
23
fb
00
01
00
00
f8
fc
ef
00
00
00
00
00
00
00
00
00
00
00
00
00
00
00
00
f5
14
21
e5
0e
00
16
01
ec
00
d9
00
f6
fa
38
f5
00
00
00
00
00
00
00
00
00
00
00
00
00
00
00
00
00
00
00
00
00
00
00
00
00
00
00
00
00
00
00
00
00
00
00
00
00
00
00
00
00
00
00
00
00
00
00
00
d9
f8
04
17
1f
00
21
0b
fb
00
0c
00
1d
1f
1b
fb
00
00
00
00
00
00
00
00
00
00
00
00
00
00
00
00
0a
ff
01
00
00
1e
0c
2a
00
2c
02
1e
ee
d5
00
1d
08
00
ff
00
00
ff
03
f3
00
f4
f0
0a
02
f1
00
01
0b
00
fe
00
00
ec
fb
26
00
08
ee
d7
fb
0f
00
fa
0f
00
14
00
00
13
e0
12
00
f1
ec
f8
0b
d3
00
f7
00
00
00
00
00
00
00
00
00
00
00
00
00
00
00
00
18
00
fa
00
00
01
ee
1e
00
19
fb
13
e3
f7
00
f2
b8
01
2a
00
00
27
ec
e7
00
c4
11
e5
19
e6
00
f1
1e
00
1f
00
00
04
d9
ed
00
ec
e3
08
03
d0
00
10
01
00
f9
00
00
06
fa
f7
00
08
f1
29
f9
f5
00
11
00
00
00
00
00
00
00
00
00
00
00
00
00
00
00
00
07
00
0d
00
00
28
e8
22
00
18
15
1b
fd
c3
00
16
00
00
00
00
00
00
00
00
00
00
00
00
00
00
00
00
00
00
00
00
00
00
00
00
00
00
00
00
00
00
00
00
00
00
00
00
00
00
00
00
00
00
00
00
00
00
00
00
0d
00
ec
00
00
dc
06
22
00
24
ff
15
07
50
00
fe
00
00
00
00
00
00
00
00
00
00
00
00
00
00
00
00
f7
fe
08
31
f5
dc
1d
00
0e
0c
05
10
0a
ed
00
f8
e2
f9
0e
fc
0a
14
09
00
05
db
1c
f7
13
0d
00
fe
fe
fd
f2
f7
ff
16
16
00
fd
11
23
f9
0a
fb
00
f8
df
fe
f5
12
10
06
c1
00
f9
20
33
00
d9
14
00
ea
00
00
00
00
00
00
00
00
00
00
00
00
00
00
00
00
e3
13
1a
ec
ee
f3
07
00
29
e8
ee
1b
dc
db
00
f5
15
e3
e7
f1
e4
14
19
00
0c
0b
12
e4
e8
32
00
19
ff
e4
e9
08
12
ec
f0
00
f0
f3
49
f9
f2
ec
00
ff
05
fd
f1
18
f3
e0
dc
00
f8
30
ea
19
fc
04
00
21
00
00
00
00
00
00
00
00
00
00
00
00
00
00
00
00
20
0b
0e
f7
00
eb
e5
00
f0
f7
04
1f
df
d5
00
f9
00
00
00
00
00
00
00
00
00
00
00
00
00
00
00
00
00
00
00
00
00
00
00
00
00
00
00
00
00
00
00
00
00
00
00
00
00
00
00
00
00
00
00
00
00
00
00
00
f8
0e
24
00
08
ec
ef
00
1a
d9
13
0d
06
0a
00
2a
00
00
00
00
00
00
00
00
00
00
00
00
00
00
00
00
e1
00
00
eb
0c
01
e4
00
00
05
1e
e9
03
0a
00
04
14
00
00
06
f3
fd
f0
00
00
f7
08
fe
e7
fd
00
f7
e8
00
00
03
ec
ec
01
00
00
18
f6
00
ff
02
00
fe
32
00
00
e4
c9
f4
ff
00
00
1c
02
01
ef
da
00
14
00
00
00
00
00
00
00
00
00
00
00
00
00
00
00
00
16
00
00
08
16
03
00
00
00
f1
fd
14
1a
20
00
0b
e2
00
00
1d
08
12
34
00
00
fe
e1
fc
04
21
00
e4
02
00
00
17
fc
18
d5
00
00
2b
f1
fe
fb
f9
00
ef
fd
00
00
f7
05
f6
18
00
00
e5
00
06
fd
17
00
fb
00
00
00
00
00
00
00
00
00
00
00
00
00
00
00
00
07
00
00
18
06
10
f2
00
00
0a
0d
0d
24
fd
00
0e
00
00
00
00
00
00
00
00
00
00
00
00
00
00
00
00
00
00
00
00
00
00
00
00
00
00
00
00
00
00
00
00
00
00
00
00
00
00
00
00
00
00
00
00
00
00
00
00
ec
00
00
f4
f4
fb
06
00
00
0b
12
14
fa
29
00
09
00
00
00
00
00
00
00
00
00
00
00
00
00
00
00
00
09
dd
20
1b
fd
04
10
ff
de
05
43
e4
32
e6
02
ff
07
f4
08
01
05
fb
03
06
ee
02
f3
fb
f0
0f
ed
00
08
02
08
08
f1
25
fa
fd
05
03
03
1b
1e
f5
e8
ff
28
eb
e8
23
07
f1
29
f6
0a
06
08
15
32
4e
ec
00
00
00
00
00
00
00
00
00
00
00
00
00
00
00
00
00
fb
fa
fd
0d
f9
f9
f5
10
14
02
ec
05
1d
09
19
01
16
ed
10
e5
01
23
ed
1d
a0
04
14
09
d6
f3
09
01
d9
24
0c
dd
fc
fd
e1
06
02
fd
0d
2a
05
de
e0
ff
12
ff
e5
d7
04
08
05
2a
ec
fd
0d
20
f2
08
13
ff
00
00
00
00
00
00
00
00
00
00
00
00
00
00
00
00
f4
0a
e5
ef
1a
0f
23
f6
0f
ff
ef
ea
fb
0d
3a
00
00
00
00
00
00
00
00
00
00
00
00
00
00
00
00
00
00
00
00
00
00
00
00
00
00
00
00
00
00
00
00
00
00
00
00
00
00
00
00
00
00
00
00
00
00
00
00
00
02
06
f4
15
e6
0d
e6
f8
f6
05
fe
03
f7
11
ce
ff
f2
e3
1e
fb
00
e6
09
16
06
0a
2f
fc
e9
ff
19
fc
00
00
00
00
00
00
00
00
00
00
00
00
00
00
00
00
00
00
00
00
00
00
00
00
00
00
00
00
00
00
00
00
1c
ef
ee
ff
15
20
e5
ff
fe
ff
e4
02
09
35
4e
19
00
00
00
00
00
00
00
00
00
00
00
00
00
00
00
00
18
11
09
e4
1b
ce
12
0a
f6
e5
23
e1
04
22
f0
2c
00
00
00
00
00
00
00
00
00
00
00
00
00
00
00
00
00
00
00
00
00
00
00
00
00
00
00
00
00
00
00
00
00
00
00
00
00
00
00
00
00
00
00
00
00
00
00
00
39
10
ff
cd
2c
19
22
17
f3
00
fe
e2
d0
13
1a
e3
00
00
00
00
00
00
00
00
00
00
00
00
00
00
00
00
00
00
00
00
00
00
00
00
00
00
00
00
00
00
00
00
00
00
00
00
00
00
00
00
00
00
00
00
00
00
00
00
00
00
00
00
00
00
00
00
00
00
00
00
00
00
00
00
e6
fa
0f
1b
ed
fa
fe
08
fc
f9
f4
14
f3
0a
18
0b
f9
fd
f6
fc
1d
0a
e8
d4
3a
29
04
ff
f0
38
e0
0e
01
00
2f
00
00
32
f3
00
fe
00
fb
0f
f2
1b
00
28
00
00
00
00
00
00
00
00
00
00
00
00
00
00
00
00
00
00
00
00
00
00
00
00
00
00
00
00
00
00
00
00
06
00
f6
00
00
07
02
00
0e
00
06
f3
41
00
00
ed
00
00
00
00
00
00
00
00
00
00
00
00
00
00
00
00
e0
00
c9
00
00
11
ef
00
bd
00
04
05
0d
09
00
e7
00
00
00
00
00
00
00
00
00
00
00
00
00
00
00
00
00
00
00
00
00
00
00
00
00
00
00
00
00
00
00
00
00
00
00
00
00
00
00
00
00
00
00
00
00
00
00
00
19
00
1d
00
00
e6
e7
00
b4
00
0a
fb
f5
15
00
c3
00
00
00
00
00
00
00
00
00
00
00
00
00
00
00
00
00
00
00
00
00
00
00
00
00
00
00
00
00
00
00
00
00
00
00
00
00
00
00
00
00
00
00
00
00
00
00
00
00
00
00
00
00
00
00
00
00
00
00
00
00
00
00
00
fc
00
ff
00
00
08
f1
00
03
00
fd
01
e2
01
00
e7
f8
00
df
00
00
09
11
00
12
00
00
1a
ef
c4
00
24
07
0b
28
03
01
f8
1e
d3
ec
dd
f3
fc
00
00
03
24
00
00
00
00
00
00
00
00
00
00
00
00
00
00
00
00
00
00
00
00
00
00
00
00
00
00
00
00
00
00
00
00
2a
f8
05
0b
fe
da
df
e3
e3
19
0d
f1
00
00
eb
ea
00
00
00
00
00
00
00
00
00
00
00
00
00
00
00
00
f9
05
c3
22
00
fb
ca
ef
dd
01
fb
eb
00
00
fe
13
00
00
00
00
00
00
00
00
00
00
00
00
00
00
00
00
00
00
00
00
00
00
00
00
00
00
00
00
00
00
00
00
00
00
00
00
00
00
00
00
00
00
00
00
00
00
00
00
0a
e9
db
e8
ff
f9
0d
fd
c9
0f
e3
ef
00
00
37
04
00
00
00
00
00
00
00
00
00
00
00
00
00
00
00
00
00
00
00
00
00
00
00
00
00
00
00
00
00
00
00
00
00
00
00
00
00
00
00
00
00
00
00
00
00
00
00
00
00
00
00
00
00
00
00
00
00
00
00
00
00
00
00
00
ff
ef
f8
15
ff
17
09
15
e8
04
10
02
00
00
f5
e6
05
f8
37
38
00
e3
36
14
00
19
f3
6e
00
00
02
01
01
05
f3
51
09
00
de
20
0c
00
f8
00
04
e5
f1
f3
00
00
00
00
00
00
00
00
00
00
00
00
00
00
00
00
00
00
00
00
00
00
00
00
00
00
00
00
00
00
00
00
d6
fe
17
d7
fe
00
dd
ed
fc
00
11
00
09
f3
0f
0d
00
00
00
00
00
00
00
00
00
00
00
00
00
00
00
00
fc
fe
de
1a
0b
00
18
f2
27
00
23
00
e7
06
f5
f1
00
00
00
00
00
00
00
00
00
00
00
00
00
00
00
00
00
00
00
00
00
00
00
00
00
00
00
00
00
00
00
00
00
00
00
00
00
00
00
00
00
00
00
00
00
00
00
00
fc
e5
ea
b3
f6
00
18
f6
d7
00
02
00
fc
e6
f2
e4
00
00
00
00
00
00
00
00
00
00
00
00
00
00
00
00
00
00
00
00
00
00
00
00
00
00
00
00
00
00
00
00
00
00
00
00
00
00
00
00
00
00
00
00
00
00
00
00
00
00
00
00
00
00
00
00
00
00
00
00
00
00
00
00
07
10
e4
07
11
00
00
0e
0c
00
f6
00
e3
ef
04
eb
1c
11
fe
1d
0d
00
f3
ff
53
00
18
00
33
23
c4
28
28
00
16
00
00
f8
0c
2c
00
26
fc
fa
ef
fc
00
1c
00
00
00
00
00
00
00
00
00
00
00
00
00
00
00
00
00
00
00
00
00
00
00
00
00
00
00
00
00
00
00
00
1c
00
ee
00
00
d7
f8
03
00
1f
23
20
ec
ee
00
26
00
00
00
00
00
00
00
00
00
00
00
00
00
00
00
00
f9
00
e3
00
00
02
d6
12
00
06
f9
06
07
1a
00
18
00
00
00
00
00
00
00
00
00
00
00
00
00
00
00
00
00
00
00
00
00
00
00
00
00
00
00
00
00
00
00
00
00
00
00
00
00
00
00
00
00
00
00
00
00
00
00
00
f6
00
ec
00
00
34
05
fb
00
d4
e8
11
d2
0b
00
c0
00
00
00
00
00
00
00
00
00
00
00
00
00
00
00
00
00
00
00
00
00
00
00
00
00
00
00
00
00
00
00
00
00
00
00
00
00
00
00
00
00
00
00
00
00
00
00
00
00
00
00
00
00
00
00
00
00
00
00
00
00
00
00
00
09
00
11
00
00
04
09
02
00
02
09
ed
ed
fd
00
11
fe
00
f5
00
00
16
fe
e1
00
36
47
07
e1
41
00
22
0d
fc
1c
e7
f4
09
09
00
0a
03
fc
22
19
d3
00
e6
00
00
00
00
00
00
00
00
00
00
00
00
00
00
00
00
00
00
00
00
00
00
00
00
00
00
00
00
00
00
00
00
e5
0f
22
25
29
cc
ec
00
f6
eb
dd
18
1c
00
00
0e
00
00
00
00
00
00
00
00
00
00
00
00
00
00
00
00
e0
04
12
04
f9
e8
ef
00
e8
f6
e8
fa
d9
4e
00
e5
00
00
00
00
00
00
00
00
00
00
00
00
00
00
00
00
00
00
00
00
00
00
00
00
00
00
00
00
00
00
00
00
00
00
00
00
00
00
00
00
00
00
00
00
00
00
00
00
37
d7
02
f7
e5
06
27
00
0d
0a
1b
f2
f9
f1
00
50
00
00
00
00
00
00
00
00
00
00
00
00
00
00
00
00
00
00
00
00
00
00
00
00
00
00
00
00
00
00
00
00
00
00
00
00
00
00
00
00
00
00
00
00
00
00
00
00
00
00
00
00
00
00
00
00
00
00
00
00
00
00
00
00
fd
f1
10
ef
0c
ff
2f
00
eb
01
04
01
08
04
00
fd
12
07
0b
0b
31
eb
04
00
1a
e0
d5
03
08
c7
00
20
ea
00
00
e9
f8
0a
e6
00
00
2b
ed
19
08
f0
00
f7
00
00
00
00
00
00
00
00
00
00
00
00
00
00
00
00
00
00
00
00
00
00
00
00
00
00
00
00
00
00
00
00
e1
00
00
08
fe
0a
24
00
00
17
10
19
2d
1a
00
1a
00
00
00
00
00
00
00
00
00
00
00
00
00
00
00
00
dc
00
00
f8
fe
e9
4a
00
00
c8
fc
e6
ec
cf
00
f9
00
00
00
00
00
00
00
00
00
00
00
00
00
00
00
00
00
00
00
00
00
00
00
00
00
00
00
00
00
00
00
00
00
00
00
00
00
00
00
00
00
00
00
00
00
00
00
00
03
00
00
0c
fc
29
db
00
00
cf
02
04
0b
fe
00
f6
00
00
00
00
00
00
00
00
00
00
00
00
00
00
00
00
00
00
00
00
00
00
00
00
00
00
00
00
00
00
00
00
00
00
00
00
00
00
00
00
00
00
00
00
00
00
00
00
00
00
00
00
00
00
00
00
00
00
00
00
00
00
00
00
03
00
00
fc
ef
00
c2
00
00
fe
fb
fb
fc
d8
00
0a
50
00
00
b7
3a
eb
e7
00
00
43
fa
2b
fd
03
00
f2
fe
ff
0b
fb
17
e5
03
fe
1f
05
fa
05
03
01
07
01
00
00
00
00
00
00
00
00
00
00
00
00
00
00
00
00
00
00
00
00
00
00
00
00
00
00
00
00
00
00
00
00
38
0b
f3
27
00
f6
0d
03
0d
0a
ee
f3
0c
4d
d5
ff
00
00
00
00
00
00
00
00
00
00
00
00
00
00
00
00
fe
c9
da
fd
00
e3
e3
11
ca
01
16
f9
f7
03
e0
ff
00
00
00
00
00
00
00
00
00
00
00
00
00
00
00
00
00
00
00
00
00
00
00
00
00
00
00
00
00
00
00
00
00
00
00
00
00
00
00
00
00
00
00
00
00
00
00
00
27
fd
fe
ed
f3
1b
24
22
e9
ff
e9
e8
01
da
cb
00
00
00
00
00
00
00
00
00
00
00
00
00
00
00
00
00
00
00
00
00
00
00
00
00
00
00
00
00
00
00
00
00
00
00
00
00
00
00
00
00
00
00
00
00
00
00
00
00
00
00
00
00
00
00
00
00
00
00
00
00
00
00
00
00
fc
e5
f2
e1
04
19
f9
f6
0a
fe
f6
06
f0
ff
f5
ff
08
1a
f5
f9
3f
e1
f4
08
e0
ff
37
3b
23
3d
3e
00
3a
ed
f8
ed
fd
0d
f9
34
fc
fa
27
03
15
17
dd
1c
0c
ff
f4
1c
e0
f3
ec
05
fd
19
05
f6
ea
1b
0a
08
d9
02
01
f4
00
f7
11
07
18
f4
04
09
f3
19
f6
23
11
2a
19
22
c6
f7
f2
24
d0
4b
d5
0b
dd
11
26
0f
00
00
00
00
00
00
00
00
00
00
00
00
00
00
00
00
f2
05
4a
fb
fd
29
0b
f9
24
16
ea
27
07
04
20
0c
44
ee
03
ff
32
0a
0d
47
1c
dc
00
ee
28
f8
f2
ec
fa
fb
fe
f7
1e
00
18
f9
fb
12
09
08
f6
01
ff
08
00
00
00
00
00
00
00
00
00
00
00
00
00
00
00
00
0b
e9
ff
07
ee
0b
fd
f0
0f
fa
f8
fc
e8
03
10
fd
00
00
00
00
00
00
00
00
00
00
00
00
00
00
00
00
f6
fc
0d
ee
f0
ed
0d
ea
12
02
f1
04
f9
04
f2
23
00
00
00
00
00
00
00
00
00
00
00
00
00
00
00
00
05
de
f4
04
fb
11
0e
04
1a
05
03
f7
e8
f2
0a
14
15
ff
cb
f1
e7
33
13
fa
ff
e3
0e
21
1c
f9
13
0d
00
00
00
00
00
00
00
00
00
00
00
00
00
00
00
00
2c
00
fa
00
00
f0
f4
00
cd
00
0c
e5
f4
2d
00
04
05
00
fa
00
00
be
ed
00
12
00
06
03
14
f2
00
18
01
00
06
00
00
1f
1f
00
09
00
e7
ec
fd
0b
00
f0
cd
00
f6
00
00
e2
bb
00
33
00
1e
f2
fc
60
00
36
00
00
00
00
00
00
00
00
00
00
00
00
00
00
00
00
f2
00
fc
00
00
27
39
00
16
00
0e
20
15
ef
00
0d
06
00
0d
00
00
2d
32
00
18
00
1b
22
f8
15
00
c2
ee
00
fa
00
00
f2
09
00
eb
00
ff
08
fc
f6
00
f6
00
00
00
00
00
00
00
00
00
00
00
00
00
00
00
00
ff
00
f7
00
00
1c
03
00
e9
00
ff
08
e7
ef
00
0a
00
00
00
00
00
00
00
00
00
00
00
00
00
00
00
00
0c
00
13
00
00
03
0d
00
fc
00
f3
f9
ee
f6
00
e1
00
00
00
00
00
00
00
00
00
00
00
00
00
00
00
00
1d
00
17
00
00
08
1a
00
d9
00
f8
1c
03
e7
00
f4
ea
00
e6
00
00
18
fd
00
ff
00
0d
2d
fe
08
00
0f
00
00
00
00
00
00
00
00
00
00
00
00
00
00
00
00
ff
1d
08
18
00
02
f9
d3
f2
ff
e2
f6
00
00
f8
ed
e4
e3
0a
ee
01
01
0b
33
fc
0d
fe
0e
00
00
08
0b
0a
fa
04
04
04
01
f1
fc
fa
16
ef
ee
00
00
06
ec
41
ef
3b
16
01
23
e2
f0
0d
07
39
e1
00
00
24
f5
00
00
00
00
00
00
00
00
00
00
00
00
00
00
00
00
e9
3b
f9
0a
fd
f3
dd
fd
df
1e
0a
14
00
00
0e
f5
01
2a
eb
f0
02
0b
dc
eb
e7
06
0b
fa
00
00
d9
cc
ee
07
0d
fa
02
02
02
00
e3
f9
02
03
00
00
ff
06
00
00
00
00
00
00
00
00
00
00
00
00
00
00
00
00
fb
fc
f4
07
00
12
00
07
0f
fd
fb
f5
00
00
fa
f7
00
00
00
00
00
00
00
00
00
00
00
00
00
00
00
00
e1
f9
00
12
02
ed
eb
f1
ee
23
f3
19
00
00
f3
11
00
00
00
00
00
00
00
00
00
00
00
00
00
00
00
00
e0
13
06
f8
02
07
dc
f4
f3
f2
ed
f0
00
00
f2
ec
3b
ef
d4
23
fb
fd
09
37
1a
0d
28
14
00
00
e8
19
00
00
00
00
00
00
00
00
00
00
00
00
00
00
00
00
ed
15
28
da
ec
00
05
0e
02
00
0d
00
1f
e5
0d
eb
13
f2
0c
08
0c
00
0d
0f
0e
00
d8
00
e9
e8
ff
e8
03
fa
09
ee
01
00
03
fb
f5
00
0e
00
f8
0c
08
f0
c2
eb
ef
e0
fe
00
01
20
34
00
53
00
2a
ef
52
d0
00
00
00
00
00
00
00
00
00
00
00
00
00
00
00
00
27
f7
1b
05
0e
00
fd
fe
f1
00
e8
00
29
ff
02
12
ec
14
df
11
fb
00
f3
24
d7
00
fc
00
dd
0e
ef
f3
fb
0a
ed
09
fb
00
fc
ea
00
00
fb
00
f5
0a
01
08
00
00
00
00
00
00
00
00
00
00
00
00
00
00
00
00
07
01
08
de
eb
00
14
eb
0d
00
04
00
ef
fd
06
0d
00
00
00
00
00
00
00
00
00
00
00
00
00
00
00
00
f2
01
03
fc
24
00
10
0a
fa
00
ea
00
ff
f6
eb
ec
00
00
00
00
00
00
00
00
00
00
00
00
00
00
00
00
ec
e7
09
1a
f9
00
e4
f3
dd
00
05
00
ef
04
f0
ed
0b
f1
01
d8
e9
00
ea
c0
0b
00
e0
00
0b
07
fb
1d
00
00
00
00
00
00
00
00
00
00
00
00
00
00
00
00
34
00
f9
00
00
30
d3
07
00
23
12
10
fd
e9
00
d4
ff
00
ee
00
00
fc
05
e6
00
01
ed
e3
12
15
00
0b
15
00
f5
00
00
f5
f3
fd
00
1d
02
02
fc
f6
00
16
ba
02
ff
00
00
f1
e6
0c
00
41
19
dd
17
15
00
e6
00
00
00
00
00
00
00
00
00
00
00
00
00
00
00
00
37
00
f8
00
00
17
f1
46
00
05
f9
f1
ff
15
00
15
15
00
0a
00
00
1e
d0
23
00
f2
27
09
c9
f0
00
0b
fd
ff
02
00
00
fe
fb
02
00
fe
04
fc
0e
0b
00
f5
00
00
00
00
00
00
00
00
00
00
00
00
00
00
00
00
0c
00
04
00
00
e4
03
f6
00
02
f9
f5
0a
02
00
e6
00
00
00
00
00
00
00
00
00
00
00
00
00
00
00
00
02
00
f8
00
00
fc
fd
2c
00
1d
03
f3
ec
e1
00
2c
00
00
00
00
00
00
00
00
00
00
00
00
00
00
00
00
38
00
f6
00
00
21
ff
df
00
00
fc
03
18
df
00
06
e0
ff
12
00
00
0d
da
fe
00
e1
06
db
17
e7
00
05
00
00
00
00
00
00
00
00
00
00
00
00
00
00
00
00
d0
1c
ef
19
06
ee
14
00
0f
e1
e3
24
cd
f8
00
f6
fc
1a
e5
eb
f0
d5
00
00
0e
f1
e9
f3
e1
e6
00
f8
17
03
0a
f7
29
f1
26
00
00
03
ed
0e
20
08
00
0e
e2
f6
dc
3e
e6
62
34
00
d4
d0
2d
c5
1e
f4
00
05
00
00
00
00
00
00
00
00
00
00
00
00
00
00
00
00
e1
04
fd
e4
22
ed
e8
00
32
fc
23
26
e5
1a
00
04
fd
ff
fd
3b
11
08
db
00
16
17
e2
18
43
ca
00
1d
f5
02
0c
01
ff
11
09
00
f7
06
03
f6
f7
04
00
00
00
00
00
00
00
00
00
00
00
00
00
00
00
00
00
00
f7
07
12
f8
0d
ff
ea
00
fa
04
f3
15
13
fc
00
fd
00
00
00
00
00
00
00
00
00
00
00
00
00
00
00
00
d7
0f
fc
ec
e0
10
cc
00
f9
f1
fe
1b
f1
1a
00
e6
00
00
00
00
00
00
00
00
00
00
00
00
00
00
00
00
04
17
fc
e2
01
ec
21
00
17
06
fe
f3
ff
e8
00
0c
13
f9
01
fc
de
01
7f
00
02
17
e6
36
e0
2f
00
f4
00
00
00
00
00
00
00
00
00
00
00
00
00
00
00
00
f9
00
00
0e
2b
0d
21
00
00
24
30
0f
20
14
00
17
20
00
00
ef
08
05
e5
00
00
ed
04
1e
2f
10
00
2c
04
00
00
06
f2
00
ea
00
00
1f
0a
00
0c
f2
00
0b
0c
00
00
d8
0b
0c
00
00
00
f8
cf
cc
11
eb
00
03
00
00
00
00
00
00
00
00
00
00
00
00
00
00
00
00
eb
00
00
07
20
f7
29
00
00
fe
e9
e6
ff
fa
00
04
f8
00
00
29
e9
f7
02
00
00
f6
05
11
d5
03
00
06
fe
00
00
f9
ed
f2
08
00
00
fb
fa
f1
03
f5
00
fc
00
00
00
00
00
00
00
00
00
00
00
00
00
00
00
00
f4
00
00
0e
10
0d
fe
00
00
e9
11
18
e4
08
00
04
00
00
00
00
00
00
00
00
00
00
00
00
00
00
00
00
f2
00
00
0e
15
fa
08
00
00
ee
05
00
06
08
00
0c
00
00
00
00
00
00
00
00
00
00
00
00
00
00
00
00
02
00
00
fb
f0
fc
09
00
00
0b
0e
13
0b
ff
00
fe
0a
00
00
03
e9
1d
1f
00
00
d8
1c
fc
25
1f
00
ea
00
00
00
00
00
00
00
00
00
00
00
00
00
00
00
00
1a
d9
d6
0b
12
e2
cd
13
0d
02
ff
ec
01
13
14
02
fe
fc
12
19
f8
01
e6
e7
28
00
0c
18
02
fa
ea
fe
f5
fb
e8
ea
04
fb
18
ea
fc
fc
17
ed
f7
1b
fd
ff
36
e2
3d
ee
20
05
ee
41
ea
03
eb
12
c1
4c
e0
02
00
00
00
00
00
00
00
00
00
00
00
00
00
00
00
00
0a
00
22
11
e6
12
0c
1c
0a
fb
fc
21
38
fb
27
03
ea
1d
f6
f2
f1
d8
29
1d
ec
01
01
e9
10
f9
f4
00
fe
06
fb
f5
0b
08
0a
04
06
fe
00
f5
06
06
ff
fd
00
00
00
00
00
00
00
00
00
00
00
00
00
00
00
00
f8
10
ef
fc
e9
f9
11
f7
f9
00
0d
06
ec
fd
ff
ff
00
00
00
00
00
00
00
00
00
00
00
00
00
00
00
00
f4
1a
fe
19
00
08
12
f2
0e
ff
f5
15
2e
f9
08
00
00
00
00
00
00
00
00
00
00
00
00
00
00
00
00
00
01
f8
10
f3
fb
f9
16
11
fb
fd
02
f9
00
ff
0c
02
ef
ee
16
00
f9
14
10
f8
1a
ff
27
1e
ef
f7
09
ff
00
00
00
00
00
00
00
00
00
00
00
00
00
00
00
00
06
ff
1b
f9
07
fb
ed
ea
e6
da
14
ef
0e
fe
34
11
00
00
00
00
00
00
00
00
00
00
00
00
00
00
00
00
ed
02
16
1f
14
fe
0e
eb
05
f4
d0
12
2c
10
00
00
00
00
00
00
00
00
00
00
00
00
00
00
00
00
00
00
00
00
00
00
00
00
00
00
00
00
00
00
00
00
00
00
fa
03
f3
89
3b
ee
1c
d0
0b
f1
cb
25
1a
28
f3
e6
16
ef
02
f6
e6
33
0b
ff
f9
f1
18
08
e6
ed
0b
ee
00
00
00
00
00
00
00
00
00
00
00
00
00
00
00
00
00
00
00
00
00
00
00
00
00
00
00
00
00
00
00
00
00
00
00
00
00
00
00
00
00
00
00
00
00
00
00
00
fa
f9
ed
f0
f7
fd
d3
12
2a
0a
e6
07
de
f8
ee
e5
00
00
00
00
00
00
00
00
00
00
00
00
00
00
00
00
fa
09
db
e4
ed
10
f9
17
f2
35
12
17
11
17
2b
ec
38
f2
f1
03
0b
14
f5
27
1d
02
ea
01
ff
00
da
23
00
00
00
00
00
00
00
00
00
00
00
00
00
00
00
00
00
00
00
00
00
00
00
00
00
00
00
00
00
00
00
00
0f
00
14
00
00
07
eb
00
1d
00
02
0b
e2
fc
00
f5
00
00
00
00
00
00
00
00
00
00
00
00
00
00
00
00
ee
00
f9
00
00
d4
cc
00
ed
00
fd
14
0d
da
00
13
00
00
00
00
00
00
00
00
00
00
00
00
00
00
00
00
00
00
00
00
00
00
00
00
00
00
00
00
00
00
00
00
fc
00
23
00
00
29
03
00
28
00
fe
21
3d
1d
00
04
f3
00
23
00
00
fd
d7
00
f4
00
0f
fb
f4
fe
00
f2
00
00
00
00
00
00
00
00
00
00
00
00
00
00
00
00
00
00
00
00
00
00
00
00
00
00
00
00
00
00
00
00
00
00
00
00
00
00
00
00
00
00
00
00
00
00
00
00
d7
00
f6
00
00
2e
fc
00
22
00
2a
dd
f7
1c
00
f7
00
00
00
00
00
00
00
00
00
00
00
00
00
00
00
00
16
00
18
00
00
f4
0e
00
f8
00
fe
fa
21
3f
00
fe
f6
00
dc
00
00
c7
fe
00
1f
00
05
de
13
21
00
06
00
00
00
00
00
00
00
00
00
00
00
00
00
00
00
00
00
00
00
00
00
00
00
00
00
00
00
00
00
00
00
00
f1
0a
fa
d3
04
03
f7
14
f2
05
eb
1c
00
00
28
1f
00
00
00
00
00
00
00
00
00
00
00
00
00
00
00
00
02
f0
17
e5
fd
06
13
1a
05
01
f1
f3
00
00
02
dd
00
00
00
00
00
00
00
00
00
00
00
00
00
00
00
00
00
00
00
00
00
00
00
00
00
00
00
00
00
00
00
00
fb
f9
1d
15
f6
e8
0a
ee
35
18
15
04
00
00
e5
e9
fb
ee
0d
04
fa
fe
e7
ec
e6
ed
e3
22
00
00
1d
31
00
00
00
00
00
00
00
00
00
00
00
00
00
00
00
00
00
00
00
00
00
00
00
00
00
00
00
00
00
00
00
00
00
00
00
00
00
00
00
00
00
00
00
00
00
00
00
00
0b
10
f3
08
ff
0b
00
09
e3
11
3a
f0
00
00
f1
fe
00
00
00
00
00
00
00
00
00
00
00
00
00
00
00
00
00
0a
38
30
02
fe
00
eb
02
14
df
fe
00
00
ee
fc
e0
02
e9
40
fe
f7
fc
cd
e2
f5
1a
03
00
00
f4
d0
00
00
00
00
00
00
00
00
00
00
00
00
00
00
00
00
00
00
00
00
00
00
00
00
00
00
00
00
00
00
00
00
f4
ee
06
21
1b
00
f9
1a
04
00
08
00
24
e9
f4
0d
00
00
00
00
00
00
00
00
00
00
00
00
00
00
00
00
01
ee
fb
cb
fd
00
f3
e9
14
00
f5
00
e5
10
f1
fa
00
00
00
00
00
00
00
00
00
00
00
00
00
00
00
00
00
00
00
00
00
00
00
00
00
00
00
00
00
00
00
00
11
02
0a
44
cd
00
e7
e2
f9
00
2d
00
07
c9
30
f7
00
f6
df
14
f5
00
1f
e0
fc
00
18
00
f8
e4
fd
22
00
00
00
00
00
00
00
00
00
00
00
00
00
00
00
00
00
00
00
00
00
00
00
00
00
00
00
00
00
00
00
00
00
00
00
00
00
00
00
00
00
00
00
00
00
00
00
00
18
0d
fe
19
0f
00
e8
05
ee
00
f0
00
0b
15
e9
eb
00
00
00
00
00
00
00
00
00
00
00
00
00
00
00
00
dd
e5
f2
04
e7
00
f0
08
0d
00
0b
00
22
06
e7
1f
07
fa
ea
10
03
00
dd
19
09
00
fd
00
e2
2f
fa
c6
00
00
00
00
00
00
00
00
00
00
00
00
00
00
00
00
00
00
00
00
00
00
00
00
00
00
00
00
00
00
00
00
f5
00
ed
00
00
f3
f7
31
00
05
17
fc
08
0d
00
f4
00
00
00
00
00
00
00
00
00
00
00
00
00
00
00
00
e2
00
14
00
00
0c
16
e8
00
f5
e7
e6
1a
04
00
03
00
00
00
00
00
00
00
00
00
00
00
00
00
00
00
00
00
00
00
00
00
00
00
00
00
00
00
00
00
00
00
00
fa
00
e4
00
00
11
d9
0c
00
17
35
11
09
30
00
f6
17
00
0b
00
00
f8
fb
05
00
03
e4
e6
dd
0f
00
11
00
00
00
00
00
00
00
00
00
00
00
00
00
00
00
00
00
00
00
00
00
00
00
00
00
00
00
00
00
00
00
00
00
00
00
00
00
00
00
00
00
00
00
00
00
00
00
00
09
00
06
00
00
f1
10
f9
00
03
20
fc
02
d5
00
fd
00
00
00
00
00
00
00
00
00
00
00
00
00
00
00
00
f6
00
08
00
00
06
06
f9
00
ff
24
0a
11
0f
00
ec
d3
01
f0
00
00
22
ec
eb
00
03
21
13
d4
fb
00
41
00
00
00
00
00
00
00
00
00
00
00
00
00
00
00
00
00
00
00
00
00
00
00
00
00
00
00
00
00
00
00
00
0e
0d
ea
f1
01
2a
16
00
de
0d
00
13
18
00
00
00
00
00
00
00
00
00
00
00
00
00
00
00
00
00
00
00
06
08
f6
ea
32
00
17
00
09
18
0f
10
0d
0b
00
e5
00
00
00
00
00
00
00
00
00
00
00
00
00
00
00
00
00
00
00
00
00
00
00
00
00
00
00
00
00
00
00
00
07
e9
e7
d8
e8
fe
a1
00
eb
b1
b2
08
15
d5
00
2d
e7
04
30
07
e0
ed
09
00
f7
ec
24
ec
34
00
00
f2
00
00
00
00
00
00
00
00
00
00
00
00
00
00
00
00
00
00
00
00
00
00
00
00
00
00
00
00
00
00
00
00
00
00
00
00
00
00
00
00
00
00
00
00
00
00
00
00
15
02
fe
1c
08
e3
e9
00
03
dc
0e
fb
32
fd
00
0b
00
00
00
00
00
00
00
00
00
00
00
00
00
00
00
00
ff
16
32
2c
ef
df
1b
00
e1
ee
f6
ec
e3
07
00
fd
fa
0e
fa
22
fb
db
09
00
06
e3
fb
f2
0f
05
00
fb
00
00
00
00
00
00
00
00
00
00
00
00
00
00
00
00
00
00
00
00
00
00
00
00
00
00
00
00
00
00
00
00
ed
00
00
f6
00
f9
18
00
00
18
e5
df
06
f4
00
12
00
00
00
00
00
00
00
00
00
00
00
00
00
00
00
00
36
00
00
f2
03
15
e0
00
00
17
f3
06
f1
05
00
f2
00
00
00
00
00
00
00
00
00
00
00
00
00
00
00
00
00
00
00
00
00
00
00
00
00
00
00
00
00
00
00
00
cf
00
00
c6
08
bf
0d
00
00
5d
de
16
44
0b
00
f3
fd
00
00
f9
e2
ff
0f
00
00
ef
f7
0f
0b
09
00
f3
00
00
00
00
00
00
00
00
00
00
00
00
00
00
00
00
00
00
00
00
00
00
00
00
00
00
00
00
00
00
00
00
00
00
00
00
00
00
00
00
00
00
00
00
00
00
00
00
ef
00
00
f3
f9
e8
f6
00
00
08
fa
1f
fe
01
00
fa
00
00
00
00
00
00
00
00
00
00
00
00
00
00
00
00
0a
00
00
f8
f8
fc
08
00
00
11
30
0f
19
05
00
08
e7
00
00
f7
13
ff
ed
00
00
1d
f6
1f
08
fe
00
f6
00
00
00
00
00
00
00
00
00
00
00
00
00
00
00
00
00
00
00
00
00
00
00
00
00
00
00
00
00
00
00
00
fe
ec
0a
06
f8
f7
d0
26
33
fc
f6
08
ec
ff
18
00
00
00
00
00
00
00
00
00
00
00
00
00
00
00
00
00
20
ff
10
09
0a
f9
f2
de
f3
01
ee
0d
f7
08
0b
01
00
00
00
00
00
00
00
00
00
00
00
00
00
00
00
00
00
00
00
00
00
00
00
00
00
00
00
00
00
00
00
00
0b
28
c9
f5
0f
f7
fb
f5
ed
f8
ae
ba
f2
1d
16
fd
0c
01
18
22
ed
f2
d0
22
1b
ff
d8
e5
05
f4
13
02
00
00
00
00
00
00
00
00
00
00
00
00
00
00
00
00
00
00
00
00
00
00
00
00
00
00
00
00
00
00
00
00
00
00
00
00
00
00
00
00
00
00
00
00
00
00
00
00
04
f7
0c
0c
f7
fd
ea
10
fc
01
25
eb
e0
09
01
02
00
00
00
00
00
00
00
00
00
00
00
00
00
00
00
00
1f
00
f8
13
fb
fe
00
12
fa
02
f4
f6
28
10
f9
01
09
05
ee
18
0b
ea
05
23
17
ff
46
f2
ff
f4
e9
01
00
00
00
00
00
00
00
00
00
00
00
00
00
00
00
00
00
00
00
00
00
00
00
00
00
00
00
00
00
00
00
00
09
f4
be
16
34
0d
cf
f6
de
e4
03
fd
31
03
fb
e9
00
00
00
00
00
00
00
00
00
00
00
00
00
00
00
00
07
ff
f0
18
f8
13
d0
18
2b
0f
fd
22
fb
ff
16
ff
10
ee
fd
df
20
fe
15
d4
0f
ef
f3
eb
3f
f1
ef
fc
fb
0e
15
09
06
fe
0e
0a
f9
06
06
00
11
fc
03
ed
00
00
00
00
00
00
00
00
00
00
00
00
00
00
00
00
07
03
fb
dc
f2
11
04
f7
e8
03
fe
fc
03
fe
06
07
00
00
00
00
00
00
00
00
00
00
00
00
00
00
00
00
00
00
00
00
00
00
00
00
00
00
00
00
00
00
00
00
00
00
00
00
00
00
00
00
00
00
00
00
00
00
00
00
00
00
00
00
00
00
00
00
00
00
00
00
00
00
00
00
00
00
00
00
00
00
00
00
00
00
00
00
00
00
00
00
00
00
00
00
00
00
00
00
00
00
00
00
00
00
00
00
00
00
00
00
00
00
00
00
00
00
00
00
00
00
00
00
e5
14
fa
d4
f3
dc
10
dd
eb
f4
0c
f1
10
06
01
04
00
00
00
00
00
00
00
00
00
00
00
00
00
00
00
00
e9
00
cf
00
00
31
2a
00
36
00
09
17
03
e8
00
ee
00
00
00
00
00
00
00
00
00
00
00
00
00
00
00
00
e1
00
38
00
00
2d
0f
00
fd
00
ff
02
e9
f7
00
03
6e
00
e9
00
00
f0
f4
00
e5
00
1c
5b
00
2b
00
df
02
00
08
00
00
ef
15
00
f2
00
f4
f8
0c
0a
00
09
00
00
00
00
00
00
00
00
00
00
00
00
00
00
00
00
fe
00
eb
00
00
fe
01
00
f6
00
0e
08
17
12
00
f1
00
00
00
00
00
00
00
00
00
00
00
00
00
00
00
00
00
00
00
00
00
00
00
00
00
00
00
00
00
00
00
00
00
00
00
00
00
00
00
00
00
00
00
00
00
00
00
00
00
00
00
00
00
00
00
00
00
00
00
00
00
00
00
00
00
00
00
00
00
00
00
00
00
00
00
00
00
00
00
00
00
00
00
00
00
00
00
00
00
00
00
00
00
00
00
00
00
00
00
00
00
00
00
00
00
00
00
00
00
00
00
00
19
00
e6
00
00
00
02
00
eb
00
e4
0c
12
23
00
f4
00
00
00
00
00
00
00
00
00
00
00
00
00
00
00
00
f0
04
08
db
06
f8
f1
e0
1e
0b
0a
1f
00
00
10
e7
00
00
00
00
00
00
00
00
00
00
00
00
00
00
00
00
e6
09
3e
f5
02
39
fd
28
0e
e8
ef
fc
00
00
02
20
f2
03
17
00
00
fc
21
fd
0a
27
e2
ee
00
00
f0
b5
05
0d
f6
fd
00
fa
00
15
07
f7
10
0a
00
00
fd
0e
00
00
00
00
00
00
00
00
00
00
00
00
00
00
00
00
12
fc
09
fc
00
ee
06
f3
fe
16
f9
17
00
00
1d
0c
00
00
00
00
00
00
00
00
00
00
00
00
00
00
00
00
00
00
00
00
00
00
00
00
00
00
00
00
00
00
00
00
00
00
00
00
00
00
00
00
00
00
00
00
00
00
00
00
00
00
00
00
00
00
00
00
