26
22
ff
03
f2
15
1d
46
2f
d7
bc
bf
06
b8
dc
21
29
13
c9
e8
08
07
f8
10
f7
1f
58
47
e1
4c
2a
b2
28
2c
b2
fb
f2
e2
da
0c
eb
ca
07
06
e6
fc
f2
f7
0c
03
f7
09
14
00
27
30
0f
1c
fd
17
10
34
2d
06
ef
e3
04
04
ea
04
f9
f4
a3
85
81
a3
d6
01
ec
9f
a8
ea
ff
f1
e2
03
20
f5
e2
f5
bd
c9
01
c8
db
0f
06
08
10
20
ab
17
16
c4
fe
e4
fb
25
14
0a
f4
1e
ea
ef
0d
21
da
0c
f4
ff
11
fa
f2
0e
09
fd
ea
e4
e1
e0
db
de
d7
b8
bb
ff
09
ff
07
fc
f8
fc
0d
0a
47
66
57
57
0d
29
fb
1b
01
5a
1e
55
0c
31
0c
e9
15
f8
cc
d1
e7
f7
10
08
11
07
1a
ef
c0
f9
1e
96
03
18
20
16
07
0f
0b
e3
f0
e9
0e
e2
e1
f9
f4
01
07
09
ee
fd
02
02
f6
e4
13
fd
1f
13
15
29
f8
f7
11
fd
03
f8
ef
0b
f6
f0
f2
ff
f2
14
18
07
08
08
ef
e2
02
fe
14
0b
f9
21
11
e5
f7
fc
ff
02
0a
fd
11
09
00
f7
fa
ff
06
00
ff
00
2c
f0
f6
f5
07
0e
09
f0
0d
21
ed
c7
39
31
17
81
18
11
32
ae
1d
00
11
db
d3
05
0c
e6
1b
0d
10
f8
fc
d7
0c
e9
ec
13
fe
fc
03
08
0a
01
11
15
03
04
02
f4
f2
eb
f8
f3
e7
02
00
00
ff
fb
d5
e8
06
ea
ee
f4
36
27
06
1c
19
00
dd
f3
9b
d1
07
c3
f6
0e
11
0f
11
ac
18
0d
35
b7
14
2a
0e
dd
fc
0b
09
15
1a
05
1d
16
05
ed
e6
ef
e9
db
ef
ff
f4
fc
ef
c7
3c
d3
e8
31
c3
42
24
f4
05
0c
10
30
26
1a
2b
07
d2
7f
c0
05
c3
47
0e
d0
0e
f3
f1
fa
eb
c8
ef
ef
e3
ea
02
07
05
15
17
0b
16
12
01
09
0b
ff
2d
32
0b
21
25
08
f8
e9
f5
f6
e8
ee
f9
f0
f0
e3
ec
ff
e2
fb
06
f7
02
0c
00
18
f9
03
2a
1d
dd
00
09
81
7c
17
35
0e
e1
54
b4
ea
02
e1
08
0a
e9
f9
12
00
f0
fe
09
fb
f7
18
10
f8
04
11
02
ed
06
03
eb
fe
10
e5
f5
39
e2
fd
3f
d2
da
0b
f2
e9
03
1a
e7
f9
3c
da
00
11
f7
1c
03
0a
07
e0
f1
f8
cd
f1
d8
d8
e1
11
2e
13
08
14
f7
ff
0c
ff
02
19
ff
fc
17
02
03
14
eb
dc
2f
22
fb
df
f0
f7
e0
0c
03
db
20
02
e7
10
f5
11
0a
f2
26
09
f7
f8
ff
ef
23
1d
cc
ed
1c
f1
eb
fc
0d
ed
01
df
39
fd
16
ee
04
f6
09
06
ff
1a
11
fa
08
fd
df
d0
f1
3c
28
db
e7
2e
00
e4
2c
31
e9
0d
0e
fa
e5
e4
f7
d0
ee
fb
29
20
06
fe
08
36
f0
f1
28
e2
ed
fe
05
fe
4c
b4
e8
92
78
1c
16
be
f8
f9
13
06
0a
21
03
03
06
f7
f8
f6
e8
ef
df
3a
f0
d0
12
2c
d0
e7
e5
c5
3e
dd
e8
34
ff
df
07
f9
db
fa
0e
f9
03
e9
cf
4f
f5
cf
3c
fc
f5
02
f7
05
03
f4
12
22
fc
0a
fd
fe
27
08
f1
10
21
01
e8
f8
fd
23
fd
e8
2c
ef
e4
14
ef
18
21
f7
19
e8
e6
f3
f0
04
03
f4
09
e1
d6
f5
fe
dc
00
12
02
f9
11
1b
09
fc
00
06
2a
57
40
54
79
3f
3a
49
1b
fe
e8
f8
e9
d8
ef
e8
eb
f9
47
b3
bb
79
d5
b3
35
ef
c4
e2
e5
0b
e4
0a
23
fd
21
2e
42
59
30
f0
f1
00
b9
99
cc
e9
e0
f1
d6
ba
e3
eb
df
f9
1c
2c
10
23
28
0f
07
05
06
f5
eb
f1
e7
d7
ed
ff
e4
f7
00
de
e0
e3
d0
ee
f1
ea
ff
84
81
d2
0a
15
25
53
5e
2d
0f
21
13
1d
25
17
19
18
07
d6
24
29
b0
20
29
e7
fc
07
17
0c
fa
28
1f
fc
15
19
0b
e1
cc
ea
d3
d0
ed
ee
f9
05
f9
e6
e3
eb
d5
f5
f7
f8
fd
f8
ea
e7
f3
d7
d6
f1
e5
e9
e0
e9
fd
e5
cd
d6
fd
e9
e9
e8
d2
e8
c4
a0
d9
d4
ca
f1
e3
dd
f7
de
c6
e5
e1
e3
f1
ec
ef
03
f3
db
e8
fb
f4
eb
ee
fe
17
00
21
26
16
24
0e
03
ed
d5
da
d1
cb
ef
e0
e1
e8
05
0d
d8
12
20
f8
13
14
08
0c
06
09
18
18
ff
12
10
13
0a
f6
1d
2a
12
18
2c
23
22
32
0f
31
25
02
07
f7
ee
f4
e1
e9
db
db
f8
eb
f2
09
0f
14
05
18
1a
05
0b
0c
03
f7
e8
e1
e2
c6
df
fd
e8
ec
04
0c
09
09
15
0b
08
07
01
10
15
05
17
1a
00
0c
06
fd
d4
b6
e4
e8
d1
e9
0b
fd
f7
b2
5d
cd
e7
7f
bf
f4
07
01
dc
fd
f6
20
2b
04
2b
24
da
07
ce
f9
23
f8
dd
02
08
cc
e2
06
1e
fe
1d
1e
e8
13
23
97
8d
b5
04
61
30
30
66
08
0e
3b
e3
a4
0f
44
cf
df
36
ef
2d
3f
d5
0b
11
d7
e9
c1
12
fd
e7
1a
0f
13
0f
08
fe
ea
1c
0e
f4
25
03
fe
18
fc
06
c2
01
b0
eb
52
bd
1c
35
d8
e6
19
16
43
de
1e
df
06
07
f1
ec
24
33
0c
21
fe
02
fe
0d
05
0c
25
03
0c
22
ed
1f
ff
e6
45
fc
ba
1c
02
d6
e1
ca
d6
09
4c
1c
fc
fa
e4
f8
15
f3
de
3d
1b
fa
e0
08
f0
e6
f0
01
16
15
08
37
04
0d
0c
f3
13
10
fd
17
08
0e
1f
3c
f0
1d
fd
d9
c1
d1
fd
08
cf
1a
01
c4
28
0e
bb
08
d5
39
20
cf
13
2e
f0
e5
fa
d4
10
35
e8
2a
0a
18
fb
f9
21
08
2c
c6
b2
05
d2
e7
35
19
dd
f7
10
c9
10
f2
e5
f6
23
df
ee
f2
2a
d9
ee
0e
f0
17
d3
06
fb
df
31
d1
0d
29
19
0b
17
15
25
12
fd
f0
f2
ec
d0
df
08
2f
dd
f1
11
d9
f6
ed
eb
f0
ef
ea
de
e6
f2
dd
c1
ec
04
12
05
14
49
03
02
04
03
13
03
00
14
10
fe
ff
fd
f3
11
04
df
24
02
de
06
fb
ef
28
f4
ee
06
e4
f8
ce
c5
e2
19
2b
e5
ef
08
ee
fc
21
00
eb
1d
f1
e0
f6
dc
0d
b9
ed
61
10
0b
36
fc
e7
0f
ba
fc
ba
fe
2a
db
3a
11
c1
3f
bb
ee
4e
f3
02
18
f7
ff
0a
0a
18
37
16
08
25
05
19
f6
b2
32
0f
c1
07
13
24
f0
f5
fb
f9
f3
f9
fa
d4
ed
e4
2e
e2
e3
35
df
d9
0f
ff
ed
d7
e6
0a
26
0d
13
2a
0d
ff
14
0b
19
19
0a
fd
01
05
02
07
f2
18
20
f0
07
05
03
fb
fc
fa
ec
e5
f4
f0
f3
02
28
0c
ec
43
11
d8
f8
d7
e3
01
0a
08
08
15
00
05
08
01
27
f9
f7
1d
14
eb
e1
01
fa
e0
1f
07
e1
f7
27
01
dd
f3
23
2b
06
f0
0b
ca
ea
d9
09
0b
01
ef
2f
04
d9
27
04
c7
07
1a
06
06
36
05
d8
c6
e7
e4
cb
c6
09
e8
f1
0a
f6
04
df
d6
e2
fd
ef
04
df
e6
ed
db
d2
db
df
0c
3f
eb
0c
37
32
f5
ee
06
08
09
f6
10
08
42
43
2d
e0
e9
e2
e6
df
eb
e3
f5
da
de
f8
ce
19
20
1a
1a
24
d5
28
26
c5
13
f8
d8
2c
f4
ef
34
e6
e1
15
f6
f4
e7
da
f9
f5
f2
cd
12
3d
0b
f4
f2
ff
e9
f3
01
ed
d3
53
ea
f3
39
e7
1a
18
f9
d9
f3
fe
09
08
fb
04
07
fb
fe
00
fd
fa
fe
fa
fe
01
fa
fe
03
05
00
fd
06
05
01
01
06
04
d3
de
dd
e3
d5
11
f6
fd
03
ff
03
04
05
07
05
05
05
02
ff
f9
01
fa
03
04
fa
05
00
ff
ff
00
00
04
06
f7
fc
01
ff
02
f9
04
02
fc
03
ff
fd
00
fa
f6
ff
fa
fc
fe
f7
fa
0e
11
09
0a
0f
05
02
05
05
02
01
02
04
05
02
03
05
01
ff
fe
fe
fb
fd
fd
fd
fa
fa
e2
00
0e
db
ed
01
f5
10
ea
02
f4
df
f5
0f
f4
07
d3
ec
03
04
03
03
05
02
00
01
00
fa
04
08
fb
fe
06
00
fa
01
fc
fb
fc
fd
fb
fe
fc
fb
ff
02
05
05
02
04
03
00
00
01
02
02
00
03
04
03
02
03
04
02
ff
fd
fc
fb
fa
fb
fb
fc
0e
1d
11
1a
28
15
0d
17
0f
04
09
04
07
09
02
03
01
00
ff
03
04
06
0a
06
08
0a
05
06
09
05
09
0b
05
02
02
ff
02
05
03
04
07
04
02
04
03
f9
fe
03
fc
04
08
ff
06
07
03
01
ff
07
06
ff
02
03
01
00
01
01
01
06
07
01
04
04
fa
f3
f8
f8
f3
f7
fe
fd
01
02
03
01
05
06
03
04
04
02
02
09
05
07
09
05
03
04
02
02
08
08
f4
fa
05
fa
f1
f7
0c
0f
00
03
03
f6
fc
fd
f7
03
02
f9
05
06
f9
03
04
00
fe
ff
00
06
06
02
06
05
02
02
01
00
04
05
01
02
04
01
f0
01
03
f4
03
00
f6
05
00
05
0a
0a
f1
f5
01
05
00
fe
fa
fa
00
f7
fd
04
f8
fe
00
06
07
04
03
04
02
00
00
01
fd
fc
fb
ff
fa
f8
01
fd
f8
0a
ff
fe
fc
04
ff
ff
fb
f7
05
04
00
05
06
ff
03
03
01
05
07
06
03
07
06
03
05
02
fc
fd
fe
fc
fb
ff
fd
fc
ff
ff
fa
fc
fb
fb
fd
fd
fe
ff
ff
01
03
04
08
05
06
08
02
e9
c9
0c
f7
cb
d7
f3
81
8e
fc
00
01
f4
f4
00
f9
f2
ff
13
1e
14
21
2b
13
13
13
06
05
ff
f5
07
04
f6
01
07
f8
fe
f9
fe
05
ff
01
06
ff
fe
fc
f9
fc
fc
fa
fc
fd
fd
00
02
fe
f7
05
08
01
fc
00
fe
06
01
f8
06
fc
fa
03
fb
fc
04
06
03
04
05
03
02
01
00
0c
08
01
04
f7
fb
f6
fd
fe
04
07
07
f7
03
0b
f5
f7
01
00
02
02
02
03
03
03
03
01
01
07
06
03
07
06
01
01
00
fb
f7
fb
00
01
02
09
0b
04
02
03
02
02
05
03
01
02
01
01
06
06
04
08
06
04
03
01
f5
f8
fc
03
fd
fb
07
08
05
f4
fd
f4
fb
00
ff
f7
f4
fa
f7
0b
05
fb
06
09
fe
00
06
0f
05
f4
0c
ff
f8
ff
eb
01
00
fa
fa
fc
f7
fe
f8
fc
fd
02
02
0e
01
fe
09
fc
fe
02
fc
f7
f6
0c
01
02
04
0b
02
02
fc
fb
0d
ff
f6
05
f9
fb
04
07
03
f5
fe
03
f5
f2
ef
08
09
fc
07
02
fa
fb
f6
fa
f7
fc
f8
03
ff
f9
01
02
fc
18
ff
02
ff
fd
02
02
02
fe
fd
08
08
03
fb
00
14
fa
f8
ff
f8
09
f6
fa
07
f5
fd
12
f9
fd
f5
01
09
00
f7
fa
fc
f2
f8
fb
05
f9
f7
04
fd
fe
0a
0a
0a
fc
fe
01
fb
f7
fd
fd
f5
05
06
f7
f9
06
11
fa
00
f1
06
fd
db
f5
06
e5
d2
01
01
06
04
fb
06
0a
ff
0c
03
f4
85
bb
cf
96
1c
ed
f3
fe
ff
fd
02
fd
fb
f6
eb
eb
02
08
07
ff
0c
01
04
0c
07
f5
fe
18
00
fe
00
06
f7
f7
e1
e2
03
fb
cc
00
f6
bb
05
02
00
02
03
ff
01
0c
03
07
00
f2
fc
08
f5
cc
04
da
dd
fd
02
08
ff
ff
02
fd
f7
fb
09
00
09
04
fc
fc
0a
f8
ff
07
07
fd
ff
fa
01
f8
fd
08
fa
f9
fd
03
12
08
00
0c
fc
f4
0c
ec
05
fa
ff
9e
fa
04
0c
fb
06
f7
f2
fc
0c
fd
09
f8
03
05
f5
fc
07
06
01
00
ff
fd
08
fe
fd
03
00
f8
fc
f9
f1
f7
f9
fa
fe
08
09
fd
ff
07
fe
fa
fe
fd
f2
fb
f7
fa
00
ff
f9
03
ff
f9
fd
00
fb
fd
f7
fd
f6
fa
fb
01
ff
00
06
00
08
07
02
08
07
01
00
06
fa
01
07
fb
fb
0a
0c
06
00
fb
04
09
02
ff
01
00
ff
fa
fc
fb
08
f8
fa
09
ff
fd
00
01
0d
05
fd
06
05
fc
f7
fa
fb
07
fc
00
08
06
01
ad
94
f4
9d
fa
21
c7
ef
f1
ff
12
d9
bd
a8
12
09
ac
05
0f
00
fe
fd
ff
ff
09
00
f4
00
ff
fd
05
ff
01
12
00
03
fe
fc
ff
fa
01
0b
fc
ff
07
0b
f8
02
fc
02
03
fa
04
fd
fe
f4
fa
01
03
01
f9
09
05
fb
fc
fc
ff
fb
f7
f5
f9
f5
fc
02
fe
fa
fd
f9
06
08
06
df
07
e2
d9
ea
d9
1a
d3
c8
0b
fd
f9
05
fd
fc
ff
00
00
01
fe
07
fc
f5
f6
04
07
04
fc
fe
fc
fb
fd
fc
f8
fe
fd
05
f3
05
ee
cf
e2
a2
00
06
f8
f3
f6
f1
00
fb
01
0d
04
04
b3
05
02
dc
0b
b5
dc
e3
f9
f9
f8
f6
fb
f2
05
0b
04
0d
03
fa
00
00
05
fe
01
04
f5
fd
01
00
0c
03
06
00
0e
04
fc
fb
0c
00
f6
09
f7
fb
fb
0e
04
fb
0c
01
fa
02
00
fd
01
fe
fd
00
fb
fd
fe
00
04
f6
08
06
fb
f9
f5
0a
00
ed
08
fa
f9
04
ce
09
df
b5
12
f6
01
f6
ab
07
02
9f
f5
02
f9
08
ff
fe
08
ef
e6
02
01
06
05
fd
01
00
fd
09
05
ee
f2
f6
05
0d
03
06
03
06
e4
01
05
e3
99
da
e4
9e
81
e2
14
fb
09
11
f3
0a
f3
fa
04
f6
05
07
fb
00
04
f7
f9
04
f8
fe
08
f8
0e
f2
fc
0b
fd
fd
08
fb
f9
fe
08
0b
fd
08
f8
f8
14
02
ff
04
04
02
a5
d6
0b
da
12
f9
f5
f5
e6
fc
00
fb
fc
fd
fa
f6
fb
fa
09
f8
fa
0e
fc
fe
09
fb
fe
fb
fc
00
fa
0b
fa
01
fd
fb
f0
fd
08
16
ff
ff
0e
f8
ef
fc
10
fd
08
0a
f7
f5
f3
fb
13
03
0e
05
05
fe
f8
fc
02
f5
f0
01
03
04
00
0b
07
0a
00
06
00
01
fe
12
04
01
05
a8
1a
e4
bb
d2
01
ed
d1
e9
06
00
f4
03
fe
01
ef
f9
0c
fa
04
04
fe
07
01
fe
09
02
fd
fe
fc
f9
fb
ff
fd
fd
ff
fe
03
06
00
0a
02
fb
f9
fb
03
01
01
f9
fb
00
04
0c
12
fb
fc
fd
fa
fc
fe
fb
fd
fd
02
fd
f9
e9
08
01
b1
ef
f7
02
f7
fd
fe
f5
02
02
01
06
fe
fb
fb
02
09
fb
0d
0a
fd
a3
09
22
cc
be
bc
ff
93
af
c1
ff
04
d3
f9
ed
05
e3
fe
02
ec
07
17
03
f9
f3
09
ee
fc
03
f5
f5
13
fc
f9
ff
05
04
ff
fd
fc
05
fc
fe
07
f9
00
fc
f7
ff
fc
fa
fd
f8
f7
ee
cd
c2
23
ce
cb
f8
f2
ff
ee
d9
f8
04
d0
10
f4
c4
e1
08
07
04
06
fc
fb
05
fe
01
f8
f9
f4
05
0c
fd
fd
03
fb
05
09
ff
00
f0
09
03
f9
06
fc
08
fb
fb
11
fe
f6
fe
07
f4
fd
08
01
03
02
0d
ff
f2
0c
f5
05
ea
fe
fa
ea
9a
f6
f5
05
f7
fe
0a
fa
fd
04
fb
f7
f6
fa
04
fd
fd
09
06
03
08
06
04
fd
f9
ff
07
05
07
f9
08
10
fc
fc
00
04
f7
f3
fe
ee
fe
10
08
f5
07
fe
fa
f8
fa
06
fd
01
05
f9
fd
fd
f7
ff
f8
f6
f6
fb
fd
04
ff
fb
10
0b
01
fd
fe
01
fa
01
03
0e
05
03
f9
fe
0c
03
07
0a
04
ea
0a
f7
fc
fc
fa
06
fb
fa
ff
fc
ff
07
03
ff
fd
02
06
f9
06
06
fb
f4
fc
fe
fd
f5
fb
06
00
0e
fe
f9
04
fe
fe
fe
0f
01
0b
04
fe
01
e5
fc
f5
10
12
fe
fa
fe
fa
f5
f9
04
eb
0f
0a
f6
05
04
fc
01
ff
ff
02
fd
f9
ff
00
f9
f9
ec
ff
08
c4
fb
fe
e3
fc
fa
fb
04
06
07
fd
ff
ff
ff
02
0c
f5
fc
08
02
ff
0a
07
05
05
02
01
fe
f6
fb
f5
00
03
0a
f8
fd
05
00
00
0d
f7
0a
fb
dd
ee
03
c4
e0
ff
00
04
02
fe
fe
fb
08
0c
02
fe
fe
fa
08
04
06
03
03
04
fa
fd
fa
04
02
04
04
05
06
0d
fe
f9
07
05
fe
01
fc
ff
d9
d3
87
e7
08
ed
0b
0b
e7
11
02
fe
fe
fa
fb
02
09
0a
b6
09
03
d8
f8
f3
fa
ee
00
a8
c2
a0
d7
f9
f3
f8
e6
16
06
0a
e2
f1
dc
c7
ed
e1
ac
09
ff
fd
0c
01
00
fe
00
01
fc
00
02
02
04
04
04
05
06
fd
05
c0
fa
03
dc
f9
03
e2
e0
eb
be
04
0b
ea
ee
fb
fd
0b
0f
fe
03
fb
fc
f8
03
05
06
f8
c5
07
e1
c4
00
f1
f2
05
02
03
06
03
02
ff
ff
fe
ee
00
ed
06
06
c4
ee
03
c3
f1
bd
ee
fb
05
fa
03
ee
06
b9
c5
e7
f9
0b
f4
04
f5
0a
00
04
02
01
07
fe
04
05
fc
f8
ff
f4
fd
ec
08
fd
fc
de
ef
db
a3
ff
0d
f1
ff
f9
04
f5
b8
db
05
f3
0c
f0
0e
f0
0a
ba
af
fb
de
0f
f4
f0
f9
06
07
04
04
06
00
fc
f8
f3
05
05
02
fe
fc
fe
00
ff
fe
ff
02
03
ff
07
02
00
09
02
f8
06
0c
00
04
06
05
fa
fc
03
0a
06
fe
ff
03
00
f8
f8
09
03
01
01
ff
00
03
00
ff
03
07
fe
04
f3
f7
e6
ae
ca
fb
f9
01
00
01
08
00
02
00
01
fd
00
ff
ff
07
00
04
08
f4
02
fc
f5
07
fb
f6
0a
fb
ae
ba
c5
fe
10
f2
01
02
f9
0c
02
0b
05
f7
00
08
ff
01
f0
10
f7
dd
ef
e8
d2
f5
0a
08
04
07
04
08
04
fd
01
fe
da
dc
01
fd
ff
02
05
fc
02
fe
f4
fb
0f
09
fb
f8
01
fc
fc
ff
03
fc
fc
06
00
fd
01
df
e9
0c
fa
ee
f3
ed
ec
bd
fc
f9
f1
00
03
09
f9
f9
03
ed
08
07
0c
f4
d8
fd
de
b6
ff
02
fc
08
ff
ff
0c
f3
fe
fe
f8
00
09
fc
f2
b8
e2
fc
bf
c3
c0
fa
08
f4
f7
0b
b8
fb
01
04
02
04
fb
03
ff
fc
04
fd
f9
ff
02
fb
fa
01
07
f9
f3
03
bb
d1
fa
d5
d8
09
fc
f5
c8
fa
0d
a9
f3
02
b5
ee
f6
08
f2
f6
eb
f8
c0
ee
f4
fc
08
04
0d
ff
0c
08
fb
dc
fe
00
f2
ff
00
fd
01
ff
f5
ff
fc
04
0d
fc
fe
02
f6
01
fe
ff
02
00
02
01
07
08
f9
fc
02
fc
00
fe
f9
00
fe
c4
c9
de
01
06
c6
f0
03
d3
fe
ff
03
00
01
08
00
03
07
d5
02
00
d6
fc
f8
fe
04
fb
04
00
fb
03
01
fb
06
04
02
ff
ff
02
fc
00
ff
f8
fe
fb
10
0d
fd
f8
24
05
11
0f
ff
af
f3
dd
c7
07
fe
f5
f4
0e
08
02
f9
07
04
f9
08
08
fb
e6
05
eb
c4
fe
08
df
f0
f9
f2
fc
91
04
05
ed
fc
ff
03
f9
03
de
03
fe
ef
00
fa
f9
ae
bd
f9
d0
cf
20
1f
8c
f8
e5
07
fd
ec
07
f3
00
c4
fd
cb
ee
e5
fc
f6
fc
04
06
ff
cb
03
07
0e
ce
fc
fd
b1
81
fe
fc
fb
05
04
01
10
08
04
fa
03
03
ee
05
f0
ca
ea
05
0d
fe
0d
02
ff
07
02
01
04
f4
df
f5
05
fb
d9
f4
08
e2
fd
02
fc
fd
05
fd
fc
01
00
c2
d3
00
d4
06
0f
cd
ee
da
09
eb
ef
00
e7
0a
fa
ef
01
ae
fb
06
ff
ff
f8
c2
fd
03
03
ec
b8
02
f5
07
f4
04
fd
f9
0a
e3
06
e0
ff
e7
eb
07
e0
ca
d3
ff
e8
db
ff
01
08
e5
10
da
0a
ec
bc
fe
d9
cb
e2
0a
b1
f0
f8
e8
09
f0
04
cb
ff
f9
a8
fa
ff
d6
09
fb
00
fe
ff
ff
01
01
02
07
06
02
fe
02
03
fa
01
03
fb
01
03
0d
ff
ff
ff
ff
00
fc
fe
c3
03
04
f3
fd
02
e5
f2
f9
05
06
06
03
04
04
00
00
fe
03
02
06
02
02
00
fe
fd
fb
ed
04
f7
d7
fd
f4
e2
f9
0b
cb
eb
eb
05
0b
d5
fc
f7
e6
fe
fa
fe
00
fd
fe
08
0d
03
f6
00
fe
f9
02
fe
fc
0b
07
03
ea
f9
fb
07
da
fb
f6
f6
03
00
00
02
fd
01
06
ff
05
ad
d9
d6
11
04
d1
04
00
c3
0a
06
06
01
fe
00
fe
01
05
07
00
fb
f9
ec
0a
da
bd
cd
03
00
f6
fd
fb
fb
fe
00
01
cd
f9
e3
fb
08
f1
f2
f2
08
f7
08
ea
04
f4
b1
04
09
b9
0a
e0
0b
df
d9
03
d2
a9
ca
b4
0c
f8
e4
f1
f2
0f
00
f3
f5
14
fb
db
d5
e8
d9
ab
da
d4
00
ff
c5
0d
bd
0f
e9
fe
f8
fb
e6
07
c7
e6
ff
f2
e2
fe
e4
d2
0f
fb
db
f6
f7
fa
f8
01
ff
fc
02
fd
fa
fe
ff
f6
c0
d1
fb
f2
fd
08
03
ef
bb
dd
e9
f3
ec
18
09
f8
e3
ff
0b
dc
f2
d8
c9
07
e4
f6
d6
fe
07
d8
fa
ff
02
05
f9
fd
02
ff
fe
fe
f7
13
08
00
05
fd
f4
de
08
01
e5
f4
d9
fe
05
01
fa
01
08
f5
f9
06
fd
00
fe
01
04
04
ff
02
09
ac
b9
12
af
d6
ff
e5
ee
f8
05
f3
f8
e6
0c
ef
b1
f1
fb
0a
06
00
03
03
03
fc
00
ff
a1
f4
fc
f8
01
02
fe
00
f4
b9
bf
c4
06
eb
0e
ff
03
ce
f4
f9
ee
ff
d9
d6
0a
de
d6
ef
fc
06
05
02
f7
fc
f6
9f
c7
9f
cd
01
05
0a
e6
e3
ed
d6
e4
fb
fd
fa
08
03
f0
f7
b1
8b
dc
0a
01
fd
f8
f2
01
14
02
0e
01
02
fe
f7
fd
00
f5
f7
03
f2
fd
03
d4
ee
f6
f9
02
f9
e0
c6
f8
0b
db
f9
ec
c3
27
ae
ce
f3
b7
c1
e3
e9
02
02
d6
c8
08
d6
11
d9
f7
d5
a8
ec
0b
e6
ee
03
01
b6
f9
04
e5
03
04
d4
ff
fb
0d
01
01
07
00
02
05
02
ff
02
01
00
f7
f7
f9
fd
ff
04
0a
05
fe
07
03
03
03
00
fd
03
f2
e1
01
ce
f2
01
fd
03
ef
00
01
05
fe
c3
04
d1
f1
dd
d3
d7
e6
00
0a
e0
00
fe
01
01
e2
04
f4
f8
02
ee
a5
01
fc
08
0f
fc
c7
fe
d9
b1
bd
bd
d5
ed
0d
e1
f8
0b
ea
f4
fb
f9
be
e1
04
fd
f1
ff
bf
02
01
bc
e2
07
0c
01
f0
f0
00
00
08
f6
f8
f5
b6
04
da
ef
f1
d1
e6
05
f0
07
03
fe
0a
09
01
09
02
fd
ff
00
c4
0f
e9
f1
d8
af
14
cc
a5
f9
c3
f8
f9
e5
0b
00
fc
ef
09
dd
f5
0a
cf
fb
f2
c8
08
03
01
04
02
ff
05
03
00
10
fc
fd
ce
09
e3
bf
f9
fb
0b
eb
b6
fd
06
d2
f6
01
eb
f4
f2
0c
05
f5
04
03
f9
06
04
e8
01
dd
ff
c1
c1
05
ea
e3
06
01
c5
dd
fe
0d
e1
fd
f6
08
e9
09
ef
01
ec
c0
da
06
11
ef
c3
fb
ce
ec
a3
da
dd
bd
dd
d2
d5
cf
d2
fe
01
0d
12
d7
ab
10
ce
8f
09
d7
e8
01
02
bc
f8
f2
b4
16
e0
d0
db
c9
cc
1c
cc
fc
eb
e4
08
d1
de
ed
02
fa
e5
06
02
ea
c1
ea
01
ef
01
03
f6
fe
f1
d2
cd
da
0e
e7
eb
f9
ff
ff
05
fb
e9
f8
0f
f5
ed
e3
ae
d0
fd
08
be
fa
09
e1
e2
ea
00
01
ff
07
02
07
0a
07
04
fc
0a
ff
f7
03
f8
ff
0a
02
04
04
00
fc
f9
fb
fd
f9
f7
0f
ff
f3
ea
e9
15
cf
ee
fe
f2
08
d8
10
f9
81
04
fb
9e
f5
0a
fb
fe
df
0b
ef
cf
e1
de
91
e9
a3
d2
0d
da
e9
f6
0d
dc
ee
dd
cd
0c
da
fc
03
e5
9f
8a
0c
f7
d9
df
f2
1f
d1
cd
d5
fc
e8
cd
fb
11
01
0a
fa
ad
e6
10
e9
ff
f2
ff
fc
0b
c8
f4
e3
aa
07
f3
df
ff
02
ff
00
fe
00
f9
f0
ee
b4
e5
df
07
eb
09
fd
f7
f7
0e
f1
e7
02
03
d4
f2
02
d2
c2
d8
f0
e4
0c
fa
fb
fb
f4
f4
db
ee
de
f5
ee
04
06
ff
f3
f3
04
e0
dc
03
f2
da
01
f5
d6
e3
cc
ef
da
dd
f5
15
fe
ff
fb
04
05
fe
04
11
08
f4
03
f1
e4
f7
0d
b3
ff
f6
14
f8
a9
cf
c7
b8
fe
13
e0
02
ae
d3
01
06
ea
ff
f5
06
00
07
00
07
08
01
06
04
00
02
d9
01
c9
f8
04
be
04
01
01
ff
f4
bd
07
db
03
fb
02
f0
e9
ba
fd
e6
be
00
fe
09
f7
ba
c5
0a
ef
fb
e1
04
02
f7
0b
eb
e8
fc
ca
05
f5
be
f4
ae
8d
0c
06
e0
f1
f7
08
fd
fc
00
f4
ff
08
f5
fe
06
eb
fd
f1
f8
11
f7
d0
f7
0b
fb
fb
00
fd
ff
02
01
00
fc
09
03
03
0b
00
01
05
ff
01
0a
bc
94
08
ea
c3
f7
01
ee
02
09
01
00
08
05
fe
00
03
ce
d8
00
e5
d5
13
cf
bb
f4
fa
ff
01
fa
00
01
f6
fc
ff
02
04
f7
06
00
f8
07
fc
f7
ff
f4
ee
09
02
fb
04
09
21
fd
02
07
ff
01
09
fd
fd
01
ed
f7
06
c0
fa
f4
ef
ff
f8
02
01
04
0b
04
01
05
01
04
05
f5
ec
ec
f8
03
e3
e2
fd
ea
d3
d7
11
e7
fa
f6
0b
1f
01
e9
bf
fd
f2
05
01
05
e4
f8
0c
eb
f8
fc
d7
0a
e5
9f
db
05
fc
fe
f9
04
05
d1
c0
0b
ec
fc
fe
be
f1
bf
ef
04
ff
05
cc
fc
f9
08
f8
f3
fd
02
08
04
01
00
fe
01
00
00
07
ef
9a
fc
ff
cb
f9
0a
e5
f8
f0
eb
07
02
f1
01
02
22
fc
00
01
fd
02
04
f7
fc
f9
eb
ea
09
de
f3
ef
f0
03
ff
d1
b6
c6
08
ef
05
ee
01
06
e7
e9
b4
fd
0e
e2
ff
f6
02
06
f3
fc
ec
d2
b3
fd
ec
12
b3
c0
12
95
ab
b8
e8
ef
09
15
f2
f9
ea
d6
e8
fe
02
08
05
0a
fb
08
0a
09
fd
fd
01
03
04
04
04
08
00
ff
ff
fe
d5
fe
0a
8c
ce
00
cb
0b
01
e1
e0
05
0c
ec
e3
03
dc
f4
d3
c0
d1
09
db
d6
fa
11
0b
f4
07
f8
c9
f3
ff
fe
ff
04
00
01
03
07
05
07
04
05
02
05
06
fa
06
00
ef
06
03
f4
d2
f8
00
b8
00
07
b3
fe
fa
f6
06
02
d8
cd
f2
f3
f8
08
f4
0d
fb
dd
e1
fb
0b
d7
f4
04
09
f4
ff
03
f7
11
0b
01
e9
0e
ad
d9
f6
f7
fb
e5
0d
ad
fa
de
df
e8
10
f9
03
f4
04
eb
f3
af
de
08
fd
0e
ff
f4
f3
05
0b
d0
d1
d6
00
08
e3
fa
0a
e7
ff
ff
a7
f8
ef
e5
ee
03
a5
ef
fe
eb
f5
02
07
04
fd
09
01
fc
07
02
05
00
ff
ff
02
02
02
07
09
00
0a
f2
d9
f1
f8
f1
f7
04
f8
0e
cf
bc
e6
07
f7
04
fa
fe
07
ff
00
02
fe
fe
01
00
02
ea
03
cb
08
03
df
fe
f6
f1
da
d4
df
f3
fa
05
06
f4
03
f9
e8
e6
fd
fe
05
fd
00
00
07
fc
fe
03
f7
00
01
fd
04
0a
f0
f7
fe
f9
05
fb
e6
aa
e3
da
d9
ff
fc
03
02
06
fa
f8
13
e4
fb
db
f4
b0
cf
0c
a0
96
9f
f1
de
d0
03
09
fd
08
dc
e5
ec
e0
17
ed
e5
f9
04
f9
00
03
f8
03
fe
f6
05
05
eb
e0
fc
09
d3
f1
fe
05
f9
f7
09
ee
f7
fd
c8
da
03
fa
04
d5
06
ec
ce
04
e3
c7
fd
06
fc
fe
03
fe
01
02
ff
01
14
f1
f8
de
c2
ef
dd
d2
e7
d8
d3
07
fc
f1
ff
01
01
cb
07
f2
ff
00
ff
04
f9
01
06
e1
b0
02
02
ea
fc
02
08
e3
ff
fc
df
03
00
c4
e2
04
d2
06
fc
08
fe
f8
e7
f4
07
f9
fd
fa
01
04
03
fb
fe
01
f5
ea
e1
ff
0d
f7
e2
fc
df
06
e9
f3
fd
0e
ea
f2
f3
b1
02
f2
04
04
e8
fa
df
e6
f6
f3
da
f3
fb
f5
00
fc
fd
04
05
e0
c1
08
ea
f4
e6
0c
fd
e0
df
06
01
03
fe
ec
05
f8
fa
e4
ec
01
e4
fd
fc
f5
04
fb
0d
ed
e1
ef
ee
fe
03
f9
f9
03
fe
db
fa
ff
e9
04
fd
e8
d9
f1
09
ef
fb
fa
06
ec
00
06
02
ff
01
00
00
00
01
0b
05
de
ee
01
f5
dd
da
d8
0a
f9
fd
f6
d5
e8
f5
fc
cd
07
f6
02
c2
00
f6
e6
0a
fb
f6
08
fc
05
f1
06
b1
d5
f1
cd
ae
c5
0a
f8
04
06
fe
f1
fc
f9
04
f6
dd
fb
00
bf
f6
02
01
e1
fd
01
d4
e4
00
db
04
fc
c0
04
ff
fc
f9
fe
04
01
eb
03
f1
0a
01
bc
f5
ef
a8
a2
e3
f4
ea
0f
d3
ea
f7
05
ff
d6
f9
08
d1
f3
01
d2
f7
fc
bf
fc
03
d1
fe
f9
f6
d9
e3
f3
f2
0a
fe
f8
01
fb
c0
da
04
d6
fd
00
eb
f8
10
f4
fc
02
f7
fe
08
04
06
08
e8
f0
01
d4
01
00
d9
fa
01
0c
f8
fa
e3
d4
07
f2
08
f5
f0
eb
b5
fb
0b
be
ff
00
fb
04
fd
01
06
02
02
02
fe
02
01
e3
e7
15
dc
ed
fc
b5
dc
fe
fd
fd
ff
fc
fd
03
05
05
00
04
ff
f7
ed
0c
d9
fb
ed
c6
ea
da
ea
f7
05
f3
0f
f1
cf
fe
00
bb
ff
00
ce
fa
00
0a
fc
f9
f3
ff
0e
c5
f6
ed
09
f2
d7
f6
fd
da
fa
07
fb
f0
de
0d
02
e6
ff
04
ef
ef
fb
dd
e7
05
fe
e2
eb
f5
db
ea
08
fe
cb
e6
f2
e6
05
05
c3
e8
06
cb
ea
fd
e5
ef
03
0a
f6
d9
f1
08
ec
00
f8
04
02
d5
db
05
f9
07
fc
fd
01
f4
f2
03
e8
0b
fb
07
ca
ff
03
f0
03
05
e2
e2
fc
e6
05
dc
f2
ff
9f
d5
0e
a4
d7
0d
02
00
03
01
ff
01
ff
02
09
fd
08
fb
09
f5
ec
f5
c9
ea
fd
a7
d0
0b
f7
ef
e1
13
f9
f1
fd
fd
03
0b
04
05
08
01
fd
03
f4
ff
02
ca
fe
fd
e7
07
03
05
01
fb
02
00
02
01
fe
fe
00
fd
00
03
fc
ff
02
bf
03
f6
e3
fe
07
d7
ff
f7
09
ef
05
f0
11
fd
e2
e3
e8
00
04
f8
f8
04
ed
fc
f3
b2
f0
ee
c5
01
ff
cf
08
e8
d6
cd
fb
01
f7
f2
fd
05
df
fe
fa
00
00
0a
e9
cf
fe
f0
f4
f4
e9
f3
ff
d7
ee
02
ed
0c
02
ff
06
02
04
0c
02
03
07
fa
05
fb
e9
04
09
ca
d9
01
f6
f8
fe
02
0e
01
0a
0d
07
fb
04
cf
09
f8
d7
fb
fe
fd
eb
05
f8
05
f6
f4
ff
ee
e5
dc
fe
03
ca
fd
eb
e8
00
f9
dc
fe
02
d1
ff
fb
fd
fc
fb
00
fb
03
ff
fd
02
fc
fc
00
0b
f0
e9
f4
05
08
aa
e0
e4
cf
f6
e6
02
03
f8
ea
fd
07
b6
fe
fa
f4
01
f8
f5
ea
08
b4
bf
e6
f8
f7
fd
02
07
f3
c9
ef
0c
f9
04
f7
03
fd
ed
ea
cd
f4
06
eb
00
f5
fe
02
02
01
03
01
00
00
03
05
04
02
03
07
07
10
0f
f7
fb
03
d3
e7
f1
ca
f0
0e
0b
fd
ee
01
ec
07
02
0f
fc
d6
bd
d9
0d
02
08
0c
fa
ff
05
ff
02
fc
00
01
00
01
00
01
00
ff
00
0c
af
ee
f9
b2
e6
01
f9
00
04
ef
fc
fb
e0
05
00
ca
02
0f
ab
ea
02
a3
10
fa
cb
e9
ea
c1
e6
17
e8
e9
03
05
02
fb
fc
00
09
fd
e4
9d
fc
d5
06
f8
ee
fc
00
02
f8
00
eb
fc
07
fb
f0
04
bb
00
f2
9c
b2
81
dd
df
f0
02
04
ff
fd
ff
fc
08
01
f8
ed
ed
d3
0d
bf
fd
ef
d1
12
b5
a9
f0
01
02
ff
03
01
fd
01
00
fe
b1
cd
d9
f1
05
ff
fa
02
ef
f7
fe
fe
f4
0a
fa
ca
e4
fb
f6
03
f6
f3
07
0a
db
ce
fb
fb
10
e1
07
f4
ce
02
f9
f4
ff
08
00
00
0a
01
00
03
f9
bb
d1
fe
ee
0d
02
ff
fb
ff
e6
fc
e0
09
fc
cf
00
03
eb
f8
f9
fc
fe
05
04
05
07
08
f4
0c
f7
0d
ea
06
df
be
f4
04
05
fa
ec
f2
ee
06
f8
e4
08
07
cd
fc
f5
c8
01
ff
e0
f3
f4
fa
03
09
03
04
0a
02
f0
00
e4
05
13
de
f1
f3
d0
fe
0f
ed
05
f2
b5
f8
0d
e9
f1
14
e9
0c
eb
f4
f0
ec
ca
e2
de
13
fb
08
df
fd
fc
dd
03
05
f6
03
f1
09
dc
f5
ff
d7
ee
cc
f3
00
e3
0f
00
e8
fa
fe
00
01
03
04
04
0a
03
00
00
00
00
00
00
00
00
00
09
dc
c0
05
f2
d0
f7
05
0e
fe
fe
fc
00
02
fe
02
03
00
e4
d8
06
fc
db
24
b1
a9
ef
0c
f5
e5
09
fc
f6
00
f8
f5
f6
13
e4
fe
ed
ee
03
f3
e4
ff
08
f9
e1
f4
10
fb
d4
dd
f4
06
ff
ff
f2
e6
fd
11
cd
00
04
02
04
18
01
00
02
ff
fb
e6
b7
09
fc
cf
fb
05
d5
ff
01
ff
06
07
02
05
06
00
fb
f6
ff
04
b7
08
09
94
e9
f2
f3
0f
e0
c8
f7
f9
fb
f2
fa
03
c7
f9
10
ae
07
da
c6
ee
0a
ff
01
f7
06
ea
da
c6
ff
00
01
ff
00
01
ff
00
00
06
00
ee
f7
ea
d4
04
fa
e0
00
fb
ec
01
0a
f0
fa
ca
d7
f6
c9
01
ec
ec
ff
04
ce
fa
fd
fe
fd
ff
00
ff
ff
02
ff
f5
eb
eb
f4
e8
e4
00
10
f6
fa
f5
e9
ef
e8
db
f9
00
d3
f5
f6
0f
04
d7
eb
fe
f4
f2
ff
f5
06
dd
fb
ff
e1
d5
ec
00
f0
e6
d9
07
0e
cd
fe
f7
ff
01
01
00
ff
01
ff
00
03
fe
06
b8
fe
f2
cf
02
f3
10
01
f0
0a
03
03
c9
f4
08
cd
de
c6
d7
f5
ec
04
02
0a
fa
05
fc
ee
ea
fb
02
b7
d5
04
fd
02
f7
0a
e6
ff
03
fa
e6
fd
03
06
bd
da
f5
ca
ec
0d
d7
06
00
cd
00
ef
08
f2
e2
d1
be
f2
01
ef
e5
09
fc
f4
dd
e8
06
df
0a
02
f9
0a
ed
00
fb
f2
fc
08
f0
fb
fe
f2
fe
b2
cc
ef
f1
11
05
f4
10
e2
ea
b8
fa
04
e6
0a
05
00
f0
c9
e4
fb
02
ee
fb
fc
ef
0a
f4
e6
f4
e9
ca
09
e9
f3
02
fa
e3
f9
f9
d8
ff
05
df
da
d5
dc
0b
ef
c2
fc
0d
fd
09
df
bc
fb
f7
03
f2
0d
f9
fa
fa
0d
17
ca
bd
f5
a4
f3
f4
07
02
03
ef
b9
01
fa
f8
cd
ef
02
da
eb
03
f1
fb
0d
c6
ea
05
ec
e3
fb
f6
e4
03
fa
04
07
03
14
03
01
03
00
b9
d3
f3
e0
e7
17
cc
e0
0c
c9
e5
e4
f0
00
08
fc
fd
f9
c1
cc
0a
01
ea
f8
05
f7
09
be
0d
f7
c9
f8
0b
d1
07
ef
07
03
f5
e4
e3
c2
e9
12
fd
07
c5
05
0c
ea
06
e4
f9
fb
f8
f9
f7
01
00
01
05
fe
fc
9a
81
a5
e0
fc
1f
0e
00
d0
ff
06
03
02
10
01
01
00
01
00
00
00
00
00
00
00
00
00
14
0d
02
f9
04
09
fa
ff
07
fb
fe
04
08
05
09
07
fd
07
b0
c7
c9
f5
0b
fa
10
ec
03
fd
11
ed
02
eb
c5
fe
dc
ed
f6
04
e9
07
f2
00
f7
01
cc
f8
fb
fb
01
03
01
fd
00
fa
01
fd
fb
02
fe
fd
00
00
ff
fd
fd
ff
ff
00
00
00
03
01
ed
09
03
ed
e1
cc
f7
ce
d3
f9
fe
00
fd
02
01
00
01
ff
03
fd
01
e1
b9
f7
03
d9
08
f8
07
00
f5
0f
f4
f9
f0
c7
07
f8
d7
00
09
e9
c2
01
02
f4
be
c7
0c
f7
ea
f7
05
ff
fe
11
04
04
04
fe
fe
fd
fb
08
f4
07
ff
02
f9
e3
c5
01
fc
01
02
02
e1
c6
04
f9
e9
f8
fd
fd
fe
04
06
04
0a
06
f7
f6
08
00
d3
02
02
dd
f3
02
c8
fb
c6
d9
f2
e4
0e
05
f8
0b
ea
fb
fa
e6
fe
d9
d9
e4
00
08
cd
e9
fd
bd
eb
f3
f5
fc
10
09
db
0b
0b
d1
e4
ff
03
01
01
03
00
00
00
00
00
00
00
00
00
00
00
00
00
03
fe
06
dd
ca
ec
0f
e8
ed
02
ff
fc
02
fe
ff
00
fd
fe
fc
07
04
c7
ee
e9
ad
f8
00
00
00
00
00
00
00
00
00
00
a1
f1
f6
b7
00
14
b0
fc
ed
dd
d1
b2
e8
d7
d5
14
e7
fd
dd
07
f1
e5
fb
ec
ea
01
11
0d
d6
af
f5
fb
ef
04
00
05
d6
fa
02
ce
f6
04
c1
f6
fa
f6
04
03
00
c1
e4
01
cb
fa
1a
f8
d8
db
ac
bc
0f
ee
dd
ff
00
ff
00
00
00
01
01
00
ed
c8
ce
02
f1
f9
eb
08
06
cb
f1
05
f4
02
06
ef
0a
ee
08
f5
02
fc
d0
06
cd
e6
f6
be
d3
ff
ee
ff
ef
09
ed
03
00
0a
fa
f7
eb
df
d9
a4
f8
fd
00
01
01
02
01
02
05
01
fa
d2
b0
0e
00
fe
ff
03
ff
fd
08
03
03
0c
02
ff
00
00
01
eb
e7
07
ec
08
01
ef
03
fb
db
02
c1
df
ea
01
f3
0e
dd
a0
f2
01
f2
f9
ed
fd
0a
0b
ee
fb
e3
d6
bc
05
fc
00
fd
f5
f3
01
01
00
00
00
fe
ff
02
00
00
01
ff
00
00
00
d8
02
fa
cd
06
04
c9
f9
00
f7
0d
ef
db
ce
f7
f7
f4
06
f5
d2
e7
0d
d8
b0
d4
f8
fb
03
10
05
ff
fb
fc
02
01
ff
fd
f9
fa
f3
03
06
ce
e5
fa
e3
fb
06
e2
07
f7
d5
ea
ff
b3
e9
e5
f1
01
05
fa
09
f4
03
eb
0d
de
f7
f6
f9
fd
f4
f0
00
00
d0
0b
f4
00
f5
08
00
01
00
00
01
00
00
00
00
0a
ea
d0
04
e3
cf
fe
0c
ff
e8
fd
05
ca
01
fb
f8
f6
ea
01
02
fc
fc
f3
0e
08
d5
b4
06
f2
f1
fb
d7
fb
e5
cf
04
fb
00
fc
fc
02
fa
fc
04
fe
00
01
01
01
01
01
00
00
01
f8
0f
f7
f1
f4
12
a5
c0
d7
04
f9
fd
04
ed
db
f6
f3
e2
ff
f5
0a
0b
f2
f4
b4
de
e9
00
00
00
00
00
00
00
00
00
05
f2
bc
f3
f1
f8
cc
07
f9
ff
02
01
00
05
02
ff
01
01
00
00
00
00
00
00
00
00
00
00
00
00
00
00
00
00
00
00
03
f3
01
c9
05
dc
d0
e9
f1
04
fd
de
f5
09
05
f6
05
c8
06
eb
fb
ed
c8
05
0d
ba
fd
ff
00
ff
01
05
01
00
02
00
00
08
ff
02
07
03
01
05
00
f4
08
fa
f3
f0
e2
df
f4
04
ff
05
01
04
07
ff
01
03
fe
02
fd
c8
01
f6
df
fa
0d
f3
02
ea
f1
ee
df
c1
0b
f9
fe
07
ea
bb
fc
fb
b5
02
08
e0
00
07
b8
fb
f7
81
f1
01
99
00
00
ff
00
00
ff
00
00
00
07
f5
fb
ed
e2
06
e2
e1
c9
e0
f9
04
dc
07
e1
da
19
e2
10
f3
d0
d4
f9
d1
c7
e6
d1
fe
b4
10
f8
ee
1f
b7
0b
fb
00
00
00
01
01
02
ff
01
01
f8
10
f5
01
05
02
f9
f8
0b
07
cc
0c
dd
99
ed
09
0d
00
f4
f3
c9
1c
ee
c3
f4
e5
a9
d1
fc
e1
d3
18
e5
da
18
f2
00
00
00
01
01
00
01
00
00
ec
f4
00
f0
f8
d7
df
c9
14
f5
e4
fe
08
dd
ea
f0
e1
e8
02
0e
02
07
09
ff
01
00
fe
02
0c
01
05
07
fd
ff
00
ff
e5
f2
ff
d9
ef
db
e9
bf
ae
06
f3
f7
0b
f9
c8
ec
dd
9d
00
ff
ff
00
01
01
00
01
00
08
fd
06
16
ee
ef
d7
b1
a8
ef
08
07
ef
02
06
f0
f1
04
12
f8
06
04
c8
c8
ed
d4
ef
fe
01
03
06
0a
09
02
02
00
f7
ee
08
1d
f8
ce
f3
d8
c1
f9
0d
fa
04
e8
06
ce
c2
f0
0d
e0
f8
01
e2
07
c4
c7
fc
08
ef
fd
f1
f3
bc
00
e7
f9
d6
f6
f5
fc
fb
ff
f6
dd
f0
00
00
00
00
00
00
00
00
00
fb
e1
fe
ea
d1
f1
12
dc
e9
00
00
01
00
00
00
00
00
00
f8
fe
05
05
09
09
06
0b
08
f6
0e
fb
e4
05
0f
c7
e3
ea
00
00
00
00
00
00
00
00
00
07
d2
da
d2
ff
f9
e7
f8
14
07
f2
fd
fe
f8
06
c7
e0
fb
d8
ea
da
03
0c
f5
00
f4
15
0c
f7
05
e7
f5
12
bc
ea
ee
00
00
00
00
00
00
00
00
00
fb
cb
f5
da
eb
f1
e8
0e
14
ff
02
03
00
00
00
01
02
01
b3
0b
09
d0
1b
fa
d5
f7
d0
fe
0e
fd
08
fe
e0
e1
df
c5
d3
e9
09
c0
f0
f3
e1
ff
03
00
00
00
00
00
00
00
00
00
05
0a
f4
10
ea
da
dd
c8
cd
f5
fc
0c
04
c3
02
f5
bf
f9
00
f9
bc
fc
f7
f6
f7
06
fe
f8
fe
03
06
0b
04
02
06
00
05
00
fb
e4
f0
07
b9
f1
02
ee
f3
fd
0f
ef
e8
ff
0b
f3
ff
00
00
01
01
01
00
00
01
0a
f2
c1
f1
00
ea
fa
df
07
02
0b
00
16
02
02
12
ff
f9
09
e0
bb
05
eb
f4
f1
0d
e1
fd
01
07
00
ff
01
03
05
02
01
10
03
09
0a
fe
00
00
fe
01
ff
00
ff
ff
01
e8
f8
fa
02
f6
06
ef
d1
08
ee
c0
f2
f8
11
f4
0a
e9
01
07
c8
d6
00
fe
ea
0a
f5
e5
f1
f0
c6
ed
d6
03
0b
03
fd
fc
05
f5
fa
04
ec
04
00
ae
06
dc
bd
ce
c9
f3
d9
e7
04
fa
15
06
00
00
00
00
00
00
00
00
00
f2
09
d8
00
03
e2
08
d4
f5
03
0c
01
06
09
ff
00
01
ff
09
fa
e5
03
f7
b6
e9
03
b0
db
a9
d1
e0
f4
0d
f6
fa
0b
01
f4
f9
fe
e0
dc
f7
ee
09
fe
02
04
03
02
00
02
03
01
01
09
01
05
07
00
02
00
00
cd
e6
e4
1d
ed
be
d8
dd
e5
fe
06
f0
14
eb
d1
fb
f5
a4
09
e2
ad
08
11
e1
f6
06
fe
08
fa
fc
dd
f6
12
d5
dc
f3
00
00
00
00
00
00
00
00
00
02
02
0c
d2
e1
ee
fe
db
f0
f7
04
fd
e8
e6
f8
0b
d8
de
05
04
c8
fd
07
dc
f3
d9
f0
03
0a
02
06
09
fe
00
00
ff
0d
ef
0c
02
f2
05
cf
ca
cb
e3
11
fa
de
e3
f1
bd
c4
e0
f6
fb
ed
c7
d3
fd
9a
f1
11
d2
df
e5
f7
f9
f8
0f
f9
f9
02
0b
01
04
05
fe
fe
01
ff
0b
eb
09
00
10
f4
ed
ba
c9
00
00
00
00
00
00
00
00
00
00
00
00
00
00
00
00
00
00
0e
f2
fe
f9
f0
fe
e9
fd
bd
00
00
00
00
00
00
00
00
00
01
03
00
02
02
00
00
00
00
0c
f3
d1
04
fc
bd
f6
12
d1
b9
03
f3
c4
e8
f5
c7
02
12
f9
f5
f8
01
02
03
fe
ff
04
fb
00
04
f1
e6
dd
f1
b3
14
f1
bb
bc
0d
fc
ef
f1
05
0b
01
09
01
05
08
00
02
01
fe
0e
ee
ee
d4
9d
fc
ee
03
fc
c1
f5
fd
e9
11
fd
0a
0a
da
04
0d
03
05
0b
fe
fe
02
fe
00
00
00
00
00
00
00
00
00
00
00
00
00
00
00
00
00
00
dc
d3
ba
06
dd
e5
0a
05
f1
fb
07
0b
d7
f2
f8
b4
cb
07
f1
ed
e9
ff
05
04
ff
fe
01
ff
01
01
01
00
00
01
00
01
03
e4
ef
c9
fe
05
01
f6
f6
02
0d
00
ff
01
00
fe
01
00
ff
ef
fc
f9
ff
00
ce
fe
fa
ff
02
cd
f7
f9
fc
fc
05
02
07
f1
d8
c3
07
f9
b6
ff
f6
d6
d0
e2
ec
02
00
00
fe
f9
fd
fd
fe
00
00
00
00
00
00
cd
e5
05
fc
00
04
02
01
f7
07
ef
0a
b3
fc
00
cd
00
08
e3
02
fe
dd
ff
fc
f6
f9
00
01
04
d4
00
f9
ef
f8
02
01
fc
fa
01
02
db
01
fe
e9
fe
de
f2
07
e1
03
01
f8
06
f7
f4
ff
01
fe
01
fc
01
ed
e7
ff
07
ed
f6
e3
f9
f1
ea
fb
e4
a6
e8
ff
00
ff
01
fd
04
e9
f7
f9
ff
fe
02
00
01
fd
f0
00
01
f9
fc
00
00
e7
04
d9
f3
f3
e9
01
fd
0a
fd
05
fe
fe
02
c2
fe
fb
ed
07
fb
00
00
00
ff
f1
dd
fd
02
e0
00
f2
07
fe
ea
05
06
f6
fa
d8
01
02
fc
f5
fc
03
00
01
fe
03
fe
ff
f8
06
04
00
c9
ee
04
f7
ef
02
ff
fc
f3
04
cb
f1
06
01
ff
00
02
fe
00
02
f9
03
f8
02
ff
f8
eb
d1
fc
fd
fb
ed
00
06
eb
fd
fd
f4
f8
fc
ff
06
00
00
02
01
03
e0
d9
fb
ff
f6
01
03
f9
fd
d9
c7
05
fa
f8
07
04
fe
01
02
00
de
fa
05
f5
01
03
ff
01
fd
02
fb
d7
00
fe
f4
ff
fd
05
ed
f6
05
f3
e6
09
fb
05
f8
00
fc
d3
fc
00
03
e4
f1
02
d1
fc
07
e3
07
fa
dc
ff
fd
02
ff
01
fc
fe
ff
05
ef
d2
fd
01
e2
f7
04
e9
fe
db
d9
06
f2
04
00
0b
fb
df
00
f3
ff
ff
01
02
ff
fc
fe
02
01
02
f8
f2
01
f8
cf
09
ff
03
fe
01
01
02
01
02
00
00
00
00
00
00
00
00
00
c9
fa
00
f7
05
f9
02
fa
04
f8
fc
f5
ff
02
01
02
fe
fd
fd
fa
fa
00
ff
ff
00
01
00
03
ff
fd
f9
03
ff
d8
ed
f8
d7
f4
05
f0
02
00
01
04
fe
02
01
ff
d6
00
01
d4
f8
04
91
ec
09
05
f2
00
fe
07
f8
02
ff
00
ee
f6
00
de
e7
fa
07
cd
fe
d4
fe
03
00
fc
fc
02
f3
04
de
04
fb
d3
fa
00
df
f1
03
dc
fa
03
0b
06
f1
02
f3
d2
f9
03
f3
01
fe
ff
ff
00
03
04
fd
f1
01
f6
f0
cc
fb
ff
d4
03
fc
fe
fa
07
fd
04
fe
dc
ff
fc
d7
fe
08
03
04
f8
d1
f7
fa
cc
04
06
02
fd
05
ca
fa
f8
ec
f8
03
fd
02
f7
02
f8
fd
00
fd
f8
01
03
ff
ff
00
ff
fa
ff
01
05
f3
f5
02
f7
fe
05
07
04
cd
02
ff
01
f7
00
fe
00
ee
01
ea
be
05
f6
03
fc
0d
f3
fe
e5
f7
02
fd
fb
fa
03
01
fe
ff
00
00
01
00
00
ff
00
ff
0e
fe
ff
03
ff
fe
02
ff
fa
02
fd
fb
fa
de
03
00
f1
cd
e3
f3
01
01
f4
04
ff
03
e3
fd
fb
ff
f7
04
fe
0b
f8
fd
fd
ff
00
05
01
ff
ff
01
fd
fe
fe
00
00
00
00
00
00
05
e0
e6
03
fd
f6
f5
02
ff
01
ff
01
02
e3
fd
fb
e2
fb
d5
0c
f5
c8
f2
f4
0c
03
01
04
06
ff
f6
cd
d3
0b
eb
f9
01
05
ef
03
fa
ed
fd
07
f7
f7
02
fd
02
f7
e0
f5
e7
07
00
fc
f9
fc
0c
01
fd
04
02
fd
03
fa
fe
04
eb
fb
f6
d9
e6
f0
bf
01
fe
ee
03
f9
02
fd
fe
fe
fe
03
ff
00
01
ff
00
03
fb
f4
ed
02
d0
ff
03
98
fd
04
ca
07
fe
08
fb
fb
fe
ba
f3
06
fc
01
fe
05
01
d7
fb
04
00
fe
f9
03
01
01
01
fc
03
fb
eb
fd
01
e8
e1
03
fa
f3
fb
f8
d5
04
00
e7
fc
d4
f3
01
ff
01
05
ff
ff
01
ff
ff
ec
ff
02
f2
fd
00
e9
f9
01
02
ef
0d
02
07
fd
d3
d9
02
02
00
03
03
00
f7
fc
ff
ff
00
01
00
ff
00
00
ff
02
ff
fd
ff
fe
fe
00
00
03
09
fe
00
ff
ff
fa
ff
01
f1
ec
07
03
fa
fe
fd
03
fb
fb
04
fd
fc
e4
03
fb
e4
f9
fb
fe
fa
fb
0b
05
01
fe
fe
fe
fd
fd
ff
01
00
00
00
00
02
fa
e5
f5
01
00
f4
fe
fe
fb
e9
ef
bd
04
05
b2
fb
01
f8
dc
c5
00
00
01
02
06
00
fb
fe
fc
fb
0e
07
ff
fb
fc
fe
e5
f5
00
f2
e9
f5
06
f1
fd
03
f9
00
f1
e4
ff
06
d8
d6
fa
fd
e8
01
00
04
06
f4
d4
03
fd
f8
ff
01
02
fb
fe
00
ce
d8
ef
01
f8
f3
fc
04
fe
04
de
00
fc
e6
01
ff
06
00
ff
e2
ff
00
fa
04
f9
fe
f7
e0
f0
87
ec
07
a3
06
f3
fd
00
fa
01
ff
f4
00
f5
d8
f0
e9
de
f5
fc
08
03
00
f2
f3
f9
f4
fe
01
ff
00
01
ff
fb
e9
bc
d5
05
ff
dc
06
04
de
00
01
ea
ff
ff
eb
f0
fe
e8
d8
dd
03
f9
f9
00
fe
03
00
00
00
00
00
00
00
00
00
fa
d5
e9
f9
fc
fd
03
01
f9
d7
f0
03
fe
01
01
09
fc
fd
01
ff
00
f9
02
02
eb
da
f3
02
fc
ef
ff
01
fc
e4
ff
01
e2
d7
04
02
00
fb
01
02
fe
fe
f4
00
cf
01
00
ce
01
fd
ff
0f
fb
00
03
ff
fc
fb
fb
f4
e3
eb
00
fe
ee
02
00
05
01
fa
01
fd
03
f5
00
01
da
ff
d6
fa
bd
f8
02
b8
05
fe
ff
0b
fd
fd
04
fe
00
01
fa
f8
00
00
d1
f8
fd
f2
03
ff
ac
81
06
0a
e4
ff
14
09
08
b8
a5
f0
fa
f6
00
fb
fe
f6
01
01
ff
fc
01
00
f6
fe
fd
fe
fc
fd
00
00
00
00
00
00
06
fc
f5
f4
d4
de
fd
fb
d6
00
02
fe
ff
fd
fd
fb
fe
fe
f8
03
f9
eb
eb
ee
ef
fe
f9
cf
c8
f7
02
e8
03
f1
08
f7
bf
d7
c0
e3
fd
0b
fb
f1
eb
03
c6
bf
ef
07
fc
eb
ff
04
f9
fa
04
fa
fd
e2
00
fa
eb
dd
ee
fd
f0
02
01
02
fd
fe
ff
04
ff
f6
e9
f2
05
f7
f8
00
00
fe
fb
00
fc
f5
fb
00
02
fe
ff
fc
04
fc
de
f2
fe
01
fa
06
02
f2
ff
f9
da
ef
fe
02
fb
fe
ff
fe
f9
e6
c7
04
e7
00
fd
f7
f7
f7
f9
f2
fd
d6
ee
04
f9
01
fd
05
f8
fc
03
fb
f9
ff
fd
03
ee
e0
02
ed
f4
e2
00
02
e9
ff
00
02
f9
fb
fc
02
f6
04
f8
dc
8b
c0
f9
00
04
fd
04
ff
fa
00
02
00
f8
d9
ee
02
ff
f9
02
b6
98
c7
fa
fc
fd
e7
ed
ec
f4
eb
01
fa
e3
02
0a
f4
b7
dd
dd
e5
02
ef
fa
fa
08
fb
c4
d8
02
00
fa
00
03
fb
ab
ff
06
01
fa
fd
f8
01
08
fa
00
fb
02
00
ee
ff
ff
03
00
ff
ff
00
01
00
00
00
00
e2
00
02
eb
fd
03
ef
f5
01
d3
fb
04
fe
03
ff
03
fe
01
fd
d6
0a
01
f7
05
ed
02
f0
fd
ed
07
01
ee
f0
03
09
02
e6
e6
d8
f5
00
fe
02
01
fe
d6
f0
e3
03
f9
01
fe
04
fd
f8
00
ff
f3
fb
bd
01
fa
ff
ff
fc
d3
b7
06
fb
b9
01
f1
db
d6
f6
fe
fa
04
03
06
f8
00
00
00
f1
01
fa
dc
ff
04
02
f3
06
fd
d6
e7
f9
e3
f4
eb
fe
05
f1
04
fe
f4
03
fb
fe
f5
e2
b8
01
04
cb
fc
fd
00
fb
da
f4
00
eb
f4
05
fe
02
09
00
fe
ff
00
fb
fc
03
fb
01
fe
fd
f1
cd
fa
05
04
fc
fc
fd
fb
e5
f2
02
01
f7
01
db
d9
02
fe
00
02
02
04
cf
e5
f3
fe
03
fb
f0
03
03
01
fd
01
fc
fe
f0
02
f2
f7
06
ed
b9
dc
03
01
04
01
02
f1
07
e0
fe
fe
f1
01
02
f6
ff
fc
00
f2
f7
06
de
fd
ee
fd
02
e0
00
fb
f3
ff
00
fc
c0
02
fb
f4
00
fe
0d
ff
03
02
ed
ff
d2
fb
ff
e6
f5
fb
00
00
fb
e2
fb
ff
fa
07
ff
02
fc
f1
f7
ef
d0
08
f9
e0
f6
f1
fb
f6
03
04
e4
ed
01
f3
fb
fd
02
0c
03
fd
01
03
fa
e9
d8
01
f7
ff
fa
01
fd
01
fb
fc
fd
04
00
01
ff
fe
fc
fe
fa
00
f5
ed
f2
eb
e5
01
02
fc
e6
f8
04
02
f7
fd
d7
ee
ef
cc
01
fd
cf
0f
00
f4
ff
fe
02
ff
fc
ec
f6
f9
04
f6
02
b1
00
04
bb
f6
fe
f7
fc
ff
02
09
01
fe
01
02
ff
02
00
f6
fe
02
f8
fd
02
fb
b2
96
08
0a
60
e7
f6
24
fe
f5
fe
00
fb
f0
f9
07
e4
c4
00
01
ec
02
01
ff
fa
fd
f6
ff
fb
e1
03
fe
f2
fc
03
06
e1
e1
fd
ff
f6
06
fb
08
06
ee
03
e5
05
01
e0
fd
f5
01
fd
d9
00
fc
fe
fd
02
01
03
07
ff
ff
fd
fe
fd
f9
fe
fd
02
00
fe
04
fd
fe
f4
da
01
fc
df
04
f9
01
02
f1
f4
fa
d8
fd
de
fb
02
ec
f7
fe
cf
b1
94
fa
fd
08
09
01
fb
d2
fe
02
01
00
fe
02
f9
01
b1
fd
03
eb
02
fb
05
fe
f9
02
f8
e1
02
f9
cc
00
0a
f0
01
fa
ff
f6
e0
f4
fb
f9
ff
f6
fe
fe
fe
eb
f0
f6
06
ef
f7
d1
f5
f0
fd
05
05
02
f9
f9
02
ff
02
fe
f9
ec
fa
db
e2
f7
f9
fd
05
fa
03
fb
05
ee
00
01
eb
01
ff
da
f7
fc
d7
d7
fc
f9
00
03
05
05
f3
04
0a
01
00
01
00
fc
00
02
fd
d1
e1
fe
fe
03
03
04
01
f8
00
fa
fc
fb
fb
df
fb
0c
d0
eb
02
f7
fd
ff
07
02
f2
02
f0
cb
fb
02
f2
01
01
f6
00
ff
01
f5
e0
fa
e6
d9
ff
00
f7
e1
ff
fd
ef
fe
00
fa
fc
e6
e4
01
00
ff
fe
fe
01
ff
fc
fe
e1
f2
f8
ed
fa
07
01
00
fa
fe
f9
da
01
02
fb
05
ff
02
a9
ff
04
d1
fd
09
06
ec
dd
a8
05
01
ef
fd
fc
00
fb
01
fa
00
ef
03
ef
f2
fe
fc
fe
00
00
00
00
00
00
ff
02
fd
d2
ff
02
f5
fe
02
c1
a4
b5
d9
0a
fe
dc
fd
02
de
02
fb
f4
00
02
fc
00
f9
ff
d5
01
ff
fe
04
fe
fd
fe
fd
00
00
00
03
00
fe
00
00
fe
00
00
03
ff
d3
fa
fc
c2
bc
d3
c4
f6
e0
03
f6
02
fa
f0
04
fd
e1
fd
02
02
05
ff
f9
d0
ea
01
ff
fc
02
ff
f8
fd
fd
02
cb
fe
00
cf
fa
00
fa
fd
01
00
ff
00
00
ff
f9
05
e2
d4
eb
02
03
02
03
fa
eb
cd
d8
ff
ff
ff
02
01
fd
ed
ab
f8
03
fc
fb
05
02
03
e5
fc
07
c9
ff
01
f4
fe
ff
fd
03
03
06
ff
df
02
fe
d1
03
fa
02
fb
05
ff
00
f2
de
0b
fb
ff
c9
04
02
af
fd
ff
c5
ec
01
f0
02
fd
06
fe
06
